const unsigned char kws_1class_depthwise_int8_tflite[] = {
  0x20, 0x00, 0x00, 0x00, 0x54, 0x46, 0x4c, 0x33, 0x00, 0x00, 0x00, 0x00,
  0x14, 0x00, 0x20, 0x00, 0x1c, 0x00, 0x18, 0x00, 0x14, 0x00, 0x10, 0x00,
  0x0c, 0x00, 0x00, 0x00, 0x08, 0x00, 0x04, 0x00, 0x14, 0x00, 0x00, 0x00,
  0x1c, 0x00, 0x00, 0x00, 0x98, 0x00, 0x00, 0x00, 0x18, 0x01, 0x00, 0x00,
  0x2c, 0x1d, 0x00, 0x00, 0x3c, 0x1d, 0x00, 0x00, 0x28, 0x43, 0x00, 0x00,
  0x03, 0x00, 0x00, 0x00, 0x01, 0x00, 0x00, 0x00, 0x10, 0x00, 0x00, 0x00,
  0x00, 0x00, 0x0a, 0x00, 0x10, 0x00, 0x0c, 0x00, 0x08, 0x00, 0x04, 0x00,
  0x0a, 0x00, 0x00, 0x00, 0x0c, 0x00, 0x00, 0x00, 0x1c, 0x00, 0x00, 0x00,
  0x3c, 0x00, 0x00, 0x00, 0x0f, 0x00, 0x00, 0x00, 0x73, 0x65, 0x72, 0x76,
  0x69, 0x6e, 0x67, 0x5f, 0x64, 0x65, 0x66, 0x61, 0x75, 0x6c, 0x74, 0x00,
  0x01, 0x00, 0x00, 0x00, 0x04, 0x00, 0x00, 0x00, 0x68, 0xff, 0xff, 0xff,
  0x15, 0x00, 0x00, 0x00, 0x04, 0x00, 0x00, 0x00, 0x08, 0x00, 0x00, 0x00,
  0x6f, 0x75, 0x74, 0x70, 0x75, 0x74, 0x5f, 0x30, 0x00, 0x00, 0x00, 0x00,
  0x01, 0x00, 0x00, 0x00, 0x04, 0x00, 0x00, 0x00, 0xba, 0xe2, 0xff, 0xff,
  0x04, 0x00, 0x00, 0x00, 0x0c, 0x00, 0x00, 0x00, 0x6b, 0x65, 0x72, 0x61,
  0x73, 0x5f, 0x74, 0x65, 0x6e, 0x73, 0x6f, 0x72, 0x00, 0x00, 0x00, 0x00,
  0x03, 0x00, 0x00, 0x00, 0x5c, 0x00, 0x00, 0x00, 0x2c, 0x00, 0x00, 0x00,
  0x04, 0x00, 0x00, 0x00, 0xb8, 0xff, 0xff, 0xff, 0x19, 0x00, 0x00, 0x00,
  0x04, 0x00, 0x00, 0x00, 0x13, 0x00, 0x00, 0x00, 0x43, 0x4f, 0x4e, 0x56,
  0x45, 0x52, 0x53, 0x49, 0x4f, 0x4e, 0x5f, 0x4d, 0x45, 0x54, 0x41, 0x44,
  0x41, 0x54, 0x41, 0x00, 0xdc, 0xff, 0xff, 0xff, 0x18, 0x00, 0x00, 0x00,
  0x04, 0x00, 0x00, 0x00, 0x13, 0x00, 0x00, 0x00, 0x6d, 0x69, 0x6e, 0x5f,
  0x72, 0x75, 0x6e, 0x74, 0x69, 0x6d, 0x65, 0x5f, 0x76, 0x65, 0x72, 0x73,
  0x69, 0x6f, 0x6e, 0x00, 0x08, 0x00, 0x0c, 0x00, 0x08, 0x00, 0x04, 0x00,
  0x08, 0x00, 0x00, 0x00, 0x17, 0x00, 0x00, 0x00, 0x04, 0x00, 0x00, 0x00,
  0x13, 0x00, 0x00, 0x00, 0x6d, 0x69, 0x6e, 0x5f, 0x72, 0x75, 0x6e, 0x74,
  0x69, 0x6d, 0x65, 0x5f, 0x76, 0x65, 0x72, 0x73, 0x69, 0x6f, 0x6e, 0x00,
  0x1a, 0x00, 0x00, 0x00, 0x10, 0x1c, 0x00, 0x00, 0x08, 0x1c, 0x00, 0x00,
  0xf0, 0x1b, 0x00, 0x00, 0xd4, 0x1b, 0x00, 0x00, 0x04, 0x1b, 0x00, 0x00,
  0xf4, 0x19, 0x00, 0x00, 0xe4, 0x0d, 0x00, 0x00, 0x14, 0x0d, 0x00, 0x00,
  0x54, 0x0b, 0x00, 0x00, 0x84, 0x0a, 0x00, 0x00, 0x74, 0x04, 0x00, 0x00,
  0xe4, 0x03, 0x00, 0x00, 0xb4, 0x02, 0x00, 0x00, 0x24, 0x02, 0x00, 0x00,
  0xf4, 0x00, 0x00, 0x00, 0xec, 0x00, 0x00, 0x00, 0xe4, 0x00, 0x00, 0x00,
  0xdc, 0x00, 0x00, 0x00, 0xd4, 0x00, 0x00, 0x00, 0xcc, 0x00, 0x00, 0x00,
  0xc4, 0x00, 0x00, 0x00, 0xbc, 0x00, 0x00, 0x00, 0xb4, 0x00, 0x00, 0x00,
  0x94, 0x00, 0x00, 0x00, 0x74, 0x00, 0x00, 0x00, 0x04, 0x00, 0x00, 0x00,
  0xc6, 0xe3, 0xff, 0xff, 0x04, 0x00, 0x00, 0x00, 0x60, 0x00, 0x00, 0x00,
  0x0c, 0x00, 0x00, 0x00, 0x08, 0x00, 0x0e, 0x00, 0x08, 0x00, 0x04, 0x00,
  0x08, 0x00, 0x00, 0x00, 0x10, 0x00, 0x00, 0x00, 0x28, 0x00, 0x00, 0x00,
  0x00, 0x00, 0x06, 0x00, 0x08, 0x00, 0x04, 0x00, 0x06, 0x00, 0x00, 0x00,
  0x04, 0x00, 0x00, 0x00, 0x01, 0x00, 0x00, 0x00, 0xeb, 0x03, 0x00, 0x00,
  0x0c, 0x00, 0x18, 0x00, 0x14, 0x00, 0x10, 0x00, 0x0c, 0x00, 0x04, 0x00,
  0x0c, 0x00, 0x00, 0x00, 0x75, 0xc3, 0xd4, 0x0a, 0x79, 0xfa, 0xbd, 0xa2,
  0x02, 0x00, 0x00, 0x00, 0x02, 0x00, 0x00, 0x00, 0x04, 0x00, 0x00, 0x00,
  0x06, 0x00, 0x00, 0x00, 0x32, 0x2e, 0x31, 0x39, 0x2e, 0x30, 0x00, 0x00,
  0x32, 0xe4, 0xff, 0xff, 0x04, 0x00, 0x00, 0x00, 0x10, 0x00, 0x00, 0x00,
  0x00, 0x00, 0x00, 0x00, 0x00, 0x00, 0x00, 0x00, 0x00, 0x00, 0x00, 0x00,
  0x00, 0x00, 0x00, 0x00, 0x4e, 0xe4, 0xff, 0xff, 0x04, 0x00, 0x00, 0x00,
  0x10, 0x00, 0x00, 0x00, 0x31, 0x2e, 0x31, 0x34, 0x2e, 0x30, 0x00, 0x00,
  0x00, 0x00, 0x00, 0x00, 0x00, 0x00, 0x00, 0x00, 0xc8, 0xbf, 0xff, 0xff,
  0xcc, 0xbf, 0xff, 0xff, 0xd0, 0xbf, 0xff, 0xff, 0xd4, 0xbf, 0xff, 0xff,
  0xd8, 0xbf, 0xff, 0xff, 0xdc, 0xbf, 0xff, 0xff, 0xe0, 0xbf, 0xff, 0xff,
  0xe4, 0xbf, 0xff, 0xff, 0x8a, 0xe4, 0xff, 0xff, 0x04, 0x00, 0x00, 0x00,
  0x20, 0x01, 0x00, 0x00, 0xf3, 0x36, 0xea, 0xef, 0x77, 0x25, 0xc5, 0x7f,
  0x11, 0xeb, 0xbc, 0x81, 0x1e, 0x41, 0xa9, 0x59, 0x35, 0x45, 0x0a, 0x0f,
  0xe3, 0x3c, 0x7f, 0x18, 0xf0, 0x0b, 0xee, 0xbc, 0x9e, 0xe0, 0xe8, 0x0f,
  0xf2, 0x7f, 0x30, 0x41, 0x7f, 0x7f, 0xe6, 0xd4, 0x53, 0x27, 0xa4, 0xa8,
  0xf2, 0x12, 0x2b, 0x2a, 0x50, 0x23, 0x7f, 0x27, 0xcd, 0x34, 0xbe, 0x01,
  0xf4, 0x31, 0x13, 0xe0, 0x7f, 0x36, 0xb8, 0x2b, 0x4a, 0x0e, 0xa6, 0xb0,
  0xa1, 0x7a, 0x7f, 0x07, 0xd0, 0xd0, 0x98, 0x5d, 0xdb, 0x8e, 0x52, 0x7f,
  0x62, 0x81, 0xa2, 0xf2, 0x58, 0x65, 0xe6, 0xe1, 0x10, 0xf4, 0x7f, 0x69,
  0x3a, 0x4d, 0x19, 0xf0, 0xe0, 0xa0, 0x90, 0xdc, 0xe2, 0x30, 0x04, 0xe7,
  0x35, 0xfe, 0xf6, 0x7f, 0xf9, 0xb3, 0x5d, 0x7f, 0x01, 0x6e, 0x2a, 0xba,
  0x1a, 0x28, 0xc5, 0x35, 0xd6, 0xfe, 0xba, 0x81, 0xc5, 0x8f, 0xc3, 0x63,
  0x0b, 0xfb, 0x74, 0x81, 0x77, 0x1d, 0xb8, 0x11, 0x2f, 0xee, 0xf0, 0x7f,
  0x52, 0xea, 0xcc, 0xe7, 0x6d, 0x2a, 0x74, 0x16, 0x0e, 0xd9, 0xe2, 0x81,
  0xb6, 0xcb, 0x0d, 0x1b, 0x03, 0x33, 0x7f, 0x10, 0x40, 0x54, 0x1a, 0x17,
  0xd7, 0xe6, 0xe5, 0x81, 0x02, 0xf7, 0xdb, 0x1a, 0x81, 0xca, 0x01, 0x26,
  0x65, 0xa4, 0xe2, 0x6c, 0x0f, 0x01, 0x38, 0x43, 0x84, 0x71, 0x09, 0x81,
  0x55, 0x2b, 0xcb, 0xbe, 0x29, 0x02, 0xb2, 0xec, 0xf0, 0x81, 0x17, 0xb3,
  0x94, 0xdc, 0xae, 0x81, 0x3c, 0x7a, 0x88, 0x48, 0x7f, 0x2e, 0x08, 0xf0,
  0xd6, 0x08, 0xd0, 0xd2, 0xc6, 0x0a, 0x81, 0x0a, 0x22, 0xd5, 0x0c, 0x57,
  0x30, 0xff, 0xf0, 0x27, 0xf2, 0xe8, 0xed, 0xb6, 0x81, 0xcb, 0x09, 0x16,
  0x33, 0x8a, 0xed, 0xb1, 0xba, 0x81, 0xe5, 0x5d, 0xcc, 0xf3, 0x7f, 0xbb,
  0x4a, 0x60, 0x9e, 0x1b, 0x04, 0x81, 0xbb, 0xf3, 0xf2, 0x43, 0x1a, 0x65,
  0x53, 0x09, 0x30, 0x24, 0x0b, 0xf0, 0xef, 0xf5, 0xbe, 0x81, 0x40, 0x6d,
  0x25, 0xb0, 0xf9, 0x7f, 0xba, 0xe4, 0x27, 0x0e, 0x7f, 0x5c, 0xfe, 0x12,
  0xbe, 0x89, 0xb9, 0xa5, 0xb6, 0xe5, 0xff, 0xff, 0x04, 0x00, 0x00, 0x00,
  0x80, 0x00, 0x00, 0x00, 0x56, 0x40, 0x00, 0x00, 0x71, 0x19, 0x00, 0x00,
  0x48, 0x29, 0x00, 0x00, 0xa1, 0x06, 0x00, 0x00, 0x84, 0x1e, 0x00, 0x00,
  0x1c, 0x56, 0x00, 0x00, 0xa0, 0x16, 0x00, 0x00, 0xf8, 0x0f, 0x00, 0x00,
  0x65, 0xfc, 0xff, 0xff, 0x07, 0xe7, 0xff, 0xff, 0x3c, 0x16, 0x00, 0x00,
  0x53, 0x1b, 0x00, 0x00, 0xb9, 0x46, 0x00, 0x00, 0xdf, 0xa3, 0xff, 0xff,
  0x8c, 0x1c, 0x00, 0x00, 0x63, 0x2a, 0x00, 0x00, 0x18, 0x12, 0x00, 0x00,
  0x67, 0x44, 0x00, 0x00, 0xaf, 0xcf, 0xff, 0xff, 0xcc, 0xf4, 0xff, 0xff,
  0x4c, 0x03, 0x00, 0x00, 0xf4, 0xca, 0xff, 0xff, 0x7c, 0xbd, 0xff, 0xff,
  0xf4, 0x13, 0x00, 0x00, 0x55, 0x0d, 0x00, 0x00, 0x84, 0xc0, 0xff, 0xff,
  0xc2, 0xac, 0xff, 0xff, 0x09, 0x25, 0x00, 0x00, 0x61, 0x09, 0x00, 0x00,
  0x31, 0xda, 0xff, 0xff, 0x5a, 0x0b, 0x00, 0x00, 0x1c, 0xf2, 0xff, 0xff,
  0x42, 0xe6, 0xff, 0xff, 0x04, 0x00, 0x00, 0x00, 0x20, 0x01, 0x00, 0x00,
  0x3b, 0xfe, 0xdd, 0x49, 0xd9, 0xa4, 0x9c, 0xf2, 0xf0, 0x9e, 0x81, 0x26,
  0x81, 0x76, 0xab, 0xf3, 0x7f, 0x6f, 0xbd, 0x21, 0x0b, 0x81, 0x0c, 0x81,
  0x15, 0x7c, 0x7f, 0x01, 0x3a, 0x00, 0x0a, 0xce, 0xdf, 0x26, 0xb9, 0x21,
  0xeb, 0x81, 0xb5, 0x09, 0x0c, 0xbd, 0xd7, 0xdb, 0x3a, 0x7f, 0x2e, 0xb4,
  0x45, 0x19, 0x01, 0xeb, 0x1c, 0x92, 0x2a, 0xb8, 0x0a, 0x25, 0x66, 0xe2,
  0x54, 0x02, 0xbe, 0x0d, 0x7f, 0x6b, 0x2d, 0x38, 0x1d, 0xfd, 0x81, 0x3c,
  0x5a, 0xb6, 0x5e, 0xe6, 0xd5, 0x48, 0x1e, 0x81, 0x11, 0x0e, 0x4b, 0x1d,
  0xe5, 0xdc, 0x7f, 0xde, 0x81, 0x19, 0x1a, 0x43, 0x81, 0xe4, 0xc3, 0xcf,
  0x9a, 0x81, 0xc5, 0x7f, 0x60, 0xf0, 0xe9, 0x7f, 0xfa, 0x9f, 0xa9, 0x2d,
  0xf9, 0xbc, 0x17, 0x61, 0xdd, 0x08, 0xd4, 0x20, 0xc3, 0x0e, 0xde, 0xf6,
  0x36, 0xde, 0x62, 0x02, 0x42, 0xfe, 0xed, 0xff, 0x22, 0xe7, 0xa2, 0xf0,
  0x3f, 0xea, 0x86, 0x1d, 0xd4, 0x8d, 0xf9, 0xd4, 0x21, 0x96, 0xca, 0x3f,
  0x00, 0xb3, 0xc0, 0x87, 0x30, 0x00, 0xfe, 0x1a, 0xf1, 0x67, 0x7e, 0x03,
  0xf3, 0xaf, 0xae, 0xfa, 0x55, 0x4e, 0xd8, 0xce, 0x13, 0x4f, 0xf0, 0xe5,
  0xea, 0x81, 0x67, 0x7f, 0x16, 0x8d, 0x43, 0xe5, 0xe9, 0x81, 0x42, 0x81,
  0x1b, 0x3f, 0x12, 0x31, 0xfd, 0x7f, 0xcc, 0xd0, 0x8f, 0x09, 0x97, 0xe6,
  0xbe, 0xd3, 0x76, 0x49, 0x81, 0x3c, 0x55, 0xfd, 0xfa, 0x03, 0xef, 0x6c,
  0x11, 0x94, 0x7f, 0x2c, 0xbc, 0x2f, 0x0d, 0x5a, 0x81, 0x41, 0x0f, 0xbd,
  0x09, 0xad, 0x0b, 0x7f, 0xe4, 0x54, 0x7f, 0x51, 0xa6, 0xdd, 0x7f, 0xf8,
  0xe5, 0xe7, 0x9d, 0x9d, 0xf0, 0x06, 0x0d, 0xe2, 0x2a, 0x86, 0xc4, 0xfc,
  0xda, 0xbf, 0x18, 0x3e, 0x16, 0x2f, 0xe8, 0x1b, 0x12, 0x33, 0x1b, 0xc4,
  0xc2, 0xe9, 0x77, 0xfb, 0x2a, 0xfd, 0xe7, 0xb1, 0x0a, 0x5f, 0x3d, 0x03,
  0x81, 0x07, 0x51, 0x43, 0xaf, 0xd9, 0xea, 0xcf, 0xc9, 0x14, 0x81, 0x28,
  0x61, 0x37, 0x4b, 0x2c, 0xdf, 0x3c, 0xa7, 0xe3, 0xda, 0x81, 0xcb, 0x81,
  0x6e, 0xe7, 0xff, 0xff, 0x04, 0x00, 0x00, 0x00, 0x80, 0x00, 0x00, 0x00,
  0x2b, 0xfe, 0xff, 0xff, 0x2a, 0x02, 0x00, 0x00, 0x87, 0xff, 0xff, 0xff,
  0x2a, 0xf9, 0xff, 0xff, 0x14, 0xfd, 0xff, 0xff, 0xcc, 0x00, 0x00, 0x00,
  0x29, 0x0a, 0x00, 0x00, 0x4e, 0xfd, 0xff, 0xff, 0x9d, 0x08, 0x00, 0x00,
  0x05, 0x0e, 0x00, 0x00, 0x3c, 0xff, 0xff, 0xff, 0x11, 0xf6, 0xff, 0xff,
  0x47, 0x05, 0x00, 0x00, 0x4d, 0x09, 0x00, 0x00, 0x97, 0xfc, 0xff, 0xff,
  0x79, 0x04, 0x00, 0x00, 0x8e, 0xfe, 0xff, 0xff, 0xc7, 0x04, 0x00, 0x00,
  0x60, 0x08, 0x00, 0x00, 0x94, 0x00, 0x00, 0x00, 0x52, 0xfe, 0xff, 0xff,
  0x31, 0xfc, 0xff, 0xff, 0x3c, 0xf5, 0xff, 0xff, 0x62, 0x05, 0x00, 0x00,
  0x38, 0x03, 0x00, 0x00, 0x93, 0xe8, 0xff, 0xff, 0x6b, 0xe9, 0xff, 0xff,
  0x86, 0xff, 0xff, 0xff, 0xde, 0x07, 0x00, 0x00, 0xac, 0x02, 0x00, 0x00,
  0xfc, 0x00, 0x00, 0x00, 0xa2, 0x08, 0x00, 0x00, 0xfa, 0xe7, 0xff, 0xff,
  0x04, 0x00, 0x00, 0x00, 0x00, 0x06, 0x00, 0x00, 0xe8, 0xba, 0xd0, 0x2c,
  0xc2, 0x7f, 0x5b, 0xfe, 0x06, 0x3a, 0x35, 0xae, 0xad, 0x16, 0x59, 0xb2,
  0xfc, 0x63, 0xc1, 0x21, 0x34, 0x11, 0xfa, 0xf3, 0xf5, 0xe3, 0xbf, 0x0d,
  0x46, 0xd0, 0xed, 0xc3, 0xae, 0x3a, 0x1c, 0x0a, 0x99, 0x8b, 0xb0, 0x4f,
  0x52, 0x41, 0xbb, 0x54, 0x4a, 0xe7, 0x08, 0xe5, 0x24, 0xcb, 0x4b, 0x93,
  0x37, 0x19, 0x60, 0xe1, 0x99, 0x7f, 0x3f, 0x4c, 0xec, 0xf1, 0x96, 0x0e,
  0x7f, 0x14, 0x2b, 0x10, 0xcf, 0x73, 0x23, 0x14, 0x16, 0xe9, 0x41, 0x20,
  0x02, 0x20, 0x4b, 0xd9, 0x22, 0x11, 0xfc, 0xe7, 0x16, 0x0b, 0xd4, 0x12,
  0xe6, 0xf7, 0x1c, 0x51, 0x35, 0x3d, 0x07, 0x10, 0xd8, 0x9f, 0xdd, 0x96,
  0xa9, 0x37, 0xe5, 0xde, 0x03, 0xf8, 0x4d, 0xea, 0xb1, 0xe0, 0x49, 0x94,
  0x81, 0x11, 0xff, 0xd0, 0x1b, 0xed, 0xed, 0xd9, 0x32, 0x03, 0xf5, 0x46,
  0x73, 0xbb, 0x83, 0xd7, 0x8a, 0x46, 0xc0, 0xf9, 0x31, 0xe3, 0xe4, 0x03,
  0xb2, 0xef, 0xcf, 0xc9, 0x44, 0xfb, 0x9f, 0x07, 0xd1, 0x14, 0x8d, 0xdd,
  0x2d, 0xbb, 0xad, 0x0c, 0xf6, 0x1a, 0x04, 0xa9, 0x81, 0x0a, 0x5f, 0x1a,
  0xf6, 0x81, 0x28, 0xeb, 0xd1, 0x1f, 0x0f, 0xe4, 0xd7, 0x06, 0x39, 0xcc,
  0xd9, 0xf6, 0x13, 0xfc, 0xdd, 0x31, 0xda, 0x18, 0xd3, 0xdf, 0xbd, 0xfb,
  0x15, 0x19, 0xc8, 0x3f, 0x34, 0xf4, 0x38, 0xf9, 0xfd, 0x7f, 0xbc, 0xb8,
  0x21, 0xb6, 0x32, 0x41, 0x67, 0x20, 0xe7, 0x16, 0x1d, 0xf5, 0x1f, 0x56,
  0xda, 0x24, 0xd2, 0xfc, 0x6b, 0xf8, 0x73, 0x39, 0x0e, 0x6a, 0x03, 0xb9,
  0xae, 0x2f, 0x48, 0x2c, 0x6d, 0x3b, 0x47, 0x81, 0x2b, 0x20, 0xa8, 0x1f,
  0x32, 0x30, 0x46, 0xdb, 0x55, 0x26, 0xee, 0x52, 0xcb, 0x24, 0x01, 0x55,
  0x1b, 0xfc, 0x31, 0xed, 0x5a, 0x36, 0x08, 0x4c, 0xe2, 0x2c, 0x70, 0x8d,
  0x15, 0x0c, 0x5f, 0x44, 0x1a, 0x52, 0x00, 0xde, 0x59, 0x08, 0x41, 0x26,
  0xd4, 0x0e, 0x1d, 0x2d, 0xfe, 0x03, 0x23, 0x08, 0x7f, 0xde, 0x18, 0xce,
  0xe2, 0x2e, 0x02, 0xdf, 0xd1, 0x43, 0x71, 0xef, 0x28, 0x13, 0xf2, 0x0b,
  0xdc, 0xaa, 0x04, 0x1f, 0x23, 0xfd, 0xd0, 0x4c, 0xc3, 0xeb, 0x6e, 0x27,
  0xf1, 0xeb, 0x00, 0x15, 0x4b, 0xd9, 0x48, 0x04, 0xf3, 0xec, 0x14, 0x5c,
  0xa1, 0xb9, 0x7f, 0xf9, 0xfc, 0x0a, 0xb8, 0x81, 0x35, 0x1c, 0x01, 0xe3,
  0xf8, 0x19, 0x5e, 0xde, 0x65, 0x10, 0x0b, 0x19, 0xd6, 0xce, 0x0e, 0x0e,
  0xf6, 0x28, 0xc5, 0x2c, 0x25, 0xb8, 0xf7, 0xbd, 0xe9, 0x05, 0xde, 0x32,
  0x2e, 0x41, 0x52, 0x17, 0xf1, 0xc4, 0xf2, 0xbc, 0x47, 0x2f, 0xe3, 0x20,
  0xad, 0x29, 0x31, 0x62, 0x41, 0x20, 0x7f, 0xd8, 0xbe, 0xb1, 0x2b, 0x96,
  0x49, 0xd1, 0xa8, 0xea, 0xef, 0xee, 0x07, 0x1c, 0xba, 0x1c, 0xbd, 0xf0,
  0xf6, 0xc8, 0x81, 0x40, 0xa8, 0x9e, 0xa7, 0x39, 0x0d, 0x68, 0xf2, 0xfa,
  0x2c, 0xea, 0xcd, 0xeb, 0x59, 0x53, 0x23, 0x2a, 0xfb, 0x07, 0xb9, 0x0a,
  0xd4, 0x4d, 0x5b, 0x05, 0xb8, 0x18, 0x5d, 0x01, 0xfb, 0xea, 0xf3, 0x13,
  0xca, 0x16, 0xa4, 0x10, 0xfa, 0xba, 0x1a, 0xd0, 0xda, 0x0a, 0xf4, 0x34,
  0x14, 0xe4, 0xef, 0x81, 0x28, 0x13, 0xd9, 0x24, 0x02, 0xd2, 0x6e, 0x04,
  0x27, 0x1a, 0x29, 0x81, 0x13, 0x41, 0xe7, 0xf7, 0xe4, 0x0b, 0xff, 0xb0,
  0x3b, 0xee, 0xc0, 0xa6, 0xb6, 0xeb, 0x31, 0xbf, 0x39, 0xdf, 0x11, 0xd2,
  0xe9, 0xc8, 0xf0, 0xb0, 0xc3, 0xfd, 0xc1, 0x24, 0x1e, 0xd3, 0x0f, 0xf7,
  0x0b, 0xd1, 0xba, 0x45, 0xd4, 0xe5, 0x01, 0x35, 0x23, 0x0d, 0x10, 0x16,
  0xf3, 0x12, 0x21, 0xb9, 0x7f, 0xf1, 0xf3, 0xbb, 0xe0, 0x0c, 0x2c, 0xf8,
  0x36, 0x1e, 0x19, 0xdb, 0x1e, 0x06, 0x9c, 0xb5, 0xd5, 0xed, 0x11, 0x03,
  0x17, 0xfb, 0xec, 0x20, 0xcd, 0x81, 0x0b, 0x06, 0xf8, 0xf6, 0x1f, 0xf5,
  0xf4, 0x0a, 0x0c, 0xcc, 0xef, 0xed, 0x0a, 0xfd, 0xd2, 0x15, 0x10, 0x19,
  0xdc, 0x2c, 0x77, 0x47, 0xf1, 0x55, 0x10, 0x97, 0x33, 0xa1, 0x90, 0x28,
  0x36, 0xe5, 0x16, 0x04, 0xe8, 0xa0, 0x4f, 0xfe, 0xee, 0xd7, 0xee, 0x33,
  0x81, 0xd8, 0xf6, 0x3c, 0xc0, 0x4a, 0x39, 0x09, 0xcf, 0x41, 0x52, 0x3d,
  0x81, 0x51, 0xf0, 0xdc, 0x0e, 0x0e, 0xbf, 0xf9, 0xeb, 0x62, 0xcf, 0x17,
  0xdc, 0xfe, 0xe6, 0xce, 0x69, 0x42, 0xd3, 0x1f, 0x03, 0xd6, 0x39, 0x47,
  0xe9, 0x24, 0xe4, 0x0c, 0x05, 0x2e, 0xab, 0x95, 0x9a, 0x81, 0xa6, 0x90,
  0x5c, 0xf3, 0xee, 0xef, 0xae, 0x12, 0xba, 0x1a, 0xf0, 0xf5, 0xb6, 0x96,
  0x52, 0x20, 0x3f, 0x10, 0x1a, 0xce, 0xe6, 0xac, 0xdf, 0xc2, 0xe8, 0xfb,
  0xd8, 0x66, 0x81, 0x14, 0xaf, 0xeb, 0xdd, 0xd7, 0x69, 0xce, 0x16, 0x1f,
  0xd1, 0x03, 0x11, 0x23, 0x8e, 0xf4, 0x2f, 0xcc, 0x2f, 0xcf, 0xf1, 0x20,
  0x95, 0xd6, 0xd7, 0x90, 0x98, 0xf7, 0xd5, 0x23, 0xe7, 0x7f, 0x0d, 0xb3,
  0xb4, 0x66, 0x6e, 0xe6, 0xe9, 0x01, 0xe1, 0x53, 0xbf, 0xb0, 0xdc, 0xbd,
  0xc4, 0xf1, 0xdb, 0xe0, 0x5e, 0x4d, 0x35, 0x1a, 0xe2, 0x66, 0x1c, 0xd6,
  0xfd, 0x13, 0x2b, 0x02, 0xe4, 0xea, 0x0e, 0x45, 0xc8, 0x0b, 0xeb, 0xc2,
  0x4b, 0xce, 0x18, 0x07, 0xc6, 0x09, 0x0f, 0x81, 0xa4, 0xe9, 0x27, 0xbf,
  0x29, 0x27, 0xdb, 0x32, 0x07, 0x1e, 0xef, 0xe9, 0xf3, 0xdb, 0xe7, 0x21,
  0x15, 0x10, 0x57, 0x08, 0x08, 0x22, 0x4d, 0xff, 0xfb, 0x32, 0xb7, 0xfa,
  0xfe, 0x93, 0xf8, 0x94, 0xff, 0x0b, 0x34, 0x21, 0x08, 0xb9, 0x26, 0xf4,
  0xf7, 0x2b, 0xd1, 0x04, 0xb5, 0xee, 0x7f, 0xeb, 0x08, 0x5a, 0x3b, 0xca,
  0x09, 0xb8, 0x34, 0xf0, 0x09, 0x1a, 0x81, 0xfa, 0x28, 0xfa, 0x3c, 0x31,
  0x16, 0xca, 0xef, 0x18, 0x3f, 0xf4, 0xf8, 0xd9, 0xec, 0xea, 0xe1, 0x37,
  0xee, 0xca, 0x48, 0xa1, 0xb4, 0xb3, 0x1d, 0xbe, 0xbc, 0x03, 0xf4, 0xfc,
  0xa6, 0x7f, 0x0a, 0x29, 0xe7, 0xc0, 0x12, 0x8b, 0x04, 0xea, 0xf9, 0x5d,
  0x2a, 0x8c, 0xda, 0x9f, 0x33, 0x05, 0xf4, 0xfa, 0xb1, 0x17, 0x0e, 0xd7,
  0xe2, 0x11, 0xc9, 0xe0, 0xdd, 0xc8, 0xed, 0x61, 0x96, 0xc6, 0xec, 0x24,
  0x48, 0xbe, 0x04, 0xf7, 0x28, 0xf9, 0x5b, 0xfe, 0x7f, 0xd1, 0x46, 0x61,
  0xab, 0x32, 0x52, 0x83, 0x86, 0xfd, 0xd3, 0xdf, 0x27, 0xf0, 0x81, 0xd9,
  0x04, 0xe6, 0xf5, 0x03, 0x17, 0xff, 0x1a, 0xe0, 0xea, 0x02, 0x0f, 0xf6,
  0x16, 0x26, 0xff, 0x1a, 0x17, 0xef, 0xe2, 0xd7, 0x1f, 0xfd, 0xe8, 0xcf,
  0x18, 0x0b, 0xe2, 0x1c, 0x94, 0x9a, 0x6c, 0xd4, 0x00, 0x22, 0xf0, 0x56,
  0xbd, 0x08, 0xdb, 0xa6, 0x99, 0x1f, 0xa3, 0x9d, 0x81, 0xed, 0xe8, 0x0a,
  0x0c, 0x52, 0x03, 0x2e, 0x3f, 0x68, 0x35, 0x3c, 0x05, 0x11, 0xdb, 0x2d,
  0xec, 0xd1, 0x56, 0x07, 0x41, 0x03, 0x37, 0xf6, 0x1e, 0x1a, 0xfa, 0xe2,
  0xde, 0xf4, 0xfa, 0xa6, 0xf2, 0x22, 0xfd, 0x28, 0x81, 0xf3, 0xe5, 0x1b,
  0x1f, 0xb8, 0xf6, 0x18, 0x50, 0x05, 0x0a, 0x1c, 0x1a, 0xf4, 0xdb, 0xd4,
  0x39, 0xee, 0xda, 0x23, 0x26, 0xbf, 0xf7, 0x22, 0xbd, 0xe6, 0x21, 0x30,
  0x81, 0xc5, 0x47, 0x05, 0xa5, 0xcd, 0xb2, 0xf2, 0x37, 0x1c, 0x2c, 0xeb,
  0xaa, 0xe0, 0xcf, 0x23, 0x8e, 0xf5, 0x81, 0xe2, 0x93, 0x30, 0xd7, 0xd7,
  0xfe, 0xdf, 0x59, 0xc8, 0xca, 0xa8, 0x1c, 0x3f, 0xb2, 0x59, 0x0d, 0xb7,
  0x8c, 0xfd, 0x02, 0xe4, 0xe4, 0x2b, 0x12, 0x35, 0x52, 0x0c, 0xd3, 0xd3,
  0x48, 0x3b, 0xf2, 0xcc, 0x8f, 0x35, 0xfb, 0xa7, 0x4c, 0x08, 0x73, 0xc1,
  0x22, 0xcb, 0x19, 0xe1, 0x17, 0x76, 0x44, 0xe6, 0x11, 0x2b, 0xbc, 0xf5,
  0x08, 0x35, 0x39, 0x81, 0x09, 0x12, 0xe8, 0x75, 0xfb, 0xf3, 0x21, 0x28,
  0xb6, 0x6d, 0xdb, 0x81, 0x27, 0x42, 0x70, 0x63, 0x94, 0x90, 0xbb, 0xac,
  0xe3, 0xeb, 0x15, 0x83, 0xe7, 0x30, 0x99, 0x27, 0x55, 0x43, 0xb6, 0xb5,
  0xfa, 0xdd, 0xbe, 0xf8, 0xcd, 0x4d, 0xf3, 0xd5, 0xa6, 0x32, 0xbc, 0xc3,
  0x26, 0x89, 0xee, 0xdd, 0x60, 0xcb, 0xad, 0xf5, 0x4b, 0x39, 0x1d, 0xe4,
  0x81, 0xc4, 0x41, 0xf4, 0xa0, 0x15, 0xdd, 0x92, 0x15, 0x19, 0xc2, 0x49,
  0xba, 0x22, 0xed, 0xda, 0xcd, 0xc7, 0xd3, 0xe3, 0x37, 0x01, 0x1b, 0x24,
  0xf7, 0x0b, 0xbe, 0xe9, 0xa5, 0xcf, 0x3a, 0xb0, 0x56, 0xc9, 0x20, 0xbb,
  0xd0, 0xcb, 0xfb, 0x81, 0xd2, 0x19, 0x1f, 0x47, 0xa7, 0x0b, 0x25, 0xde,
  0xfa, 0x10, 0x26, 0xdb, 0xe6, 0x19, 0xd1, 0x08, 0x0d, 0x81, 0x30, 0xc1,
  0xf3, 0x49, 0x81, 0x10, 0xb2, 0xe6, 0xe3, 0x0a, 0x2b, 0xb5, 0xcc, 0x3f,
  0x10, 0xba, 0x6d, 0xfb, 0x22, 0xd0, 0x0e, 0x59, 0x2e, 0x0b, 0x36, 0x2f,
  0xd0, 0xd6, 0x2d, 0x7f, 0xf2, 0x56, 0x5d, 0x03, 0x0e, 0xfa, 0x51, 0xfa,
  0x3a, 0xef, 0x07, 0x15, 0xf5, 0xfe, 0x17, 0x25, 0xf0, 0xd2, 0xf1, 0x3e,
  0xde, 0xb6, 0x43, 0x0d, 0xeb, 0xfb, 0x0f, 0xc2, 0xd1, 0xae, 0xda, 0xd4,
  0x77, 0x1d, 0x1b, 0xd0, 0x7f, 0x22, 0x9d, 0x0e, 0x6b, 0x36, 0x4d, 0x2a,
  0x3e, 0x6a, 0x3a, 0x17, 0x29, 0x27, 0xab, 0xb2, 0x21, 0x42, 0x21, 0xdc,
  0xbd, 0xf9, 0x0a, 0xd9, 0xf9, 0xe2, 0xde, 0x81, 0xd8, 0x11, 0x8b, 0x36,
  0xd5, 0xcc, 0xd4, 0xfa, 0xb5, 0xef, 0xdd, 0xe6, 0xe7, 0xb3, 0xc1, 0x84,
  0xa8, 0xfe, 0x3b, 0xbc, 0x34, 0xe0, 0x74, 0x4c, 0xbb, 0x0a, 0xb4, 0xbd,
  0xef, 0x11, 0x7f, 0xe4, 0x25, 0x69, 0x2b, 0x32, 0xcd, 0xfb, 0xb9, 0x28,
  0x78, 0x21, 0x35, 0x5a, 0x2a, 0xc8, 0x3e, 0xcc, 0xd8, 0xda, 0x61, 0xda,
  0x19, 0xf2, 0x1a, 0xc1, 0xd2, 0x11, 0x9b, 0x05, 0xfa, 0x4b, 0x81, 0x9b,
  0x94, 0x07, 0x21, 0xfc, 0xf1, 0x6e, 0xb8, 0xc8, 0xdf, 0xea, 0xb3, 0xcd,
  0x16, 0xb2, 0x40, 0x3d, 0x12, 0x1f, 0x30, 0x05, 0xca, 0xcc, 0x1e, 0x1b,
  0xe4, 0x39, 0x19, 0x95, 0x23, 0x1a, 0x43, 0x0b, 0x1f, 0xfe, 0xa6, 0x9b,
  0x0c, 0xb7, 0xe2, 0x81, 0xdf, 0xd5, 0xd4, 0x41, 0xa2, 0x0a, 0xf2, 0x84,
  0x7c, 0xf1, 0xcb, 0x1e, 0xe7, 0x18, 0xa9, 0xf2, 0xeb, 0x0a, 0xfe, 0xe1,
  0xca, 0x14, 0x18, 0xea, 0xec, 0x0b, 0xae, 0x41, 0x91, 0x12, 0xd8, 0x81,
  0xdc, 0x11, 0xd7, 0xdd, 0xba, 0xc1, 0xa5, 0xbb, 0xe4, 0xd0, 0x5b, 0xc8,
  0x4d, 0x26, 0xd2, 0xde, 0xaf, 0x2c, 0x07, 0xde, 0x18, 0xbf, 0x56, 0x3e,
  0xb7, 0x19, 0x17, 0x10, 0xbe, 0xd1, 0xeb, 0x18, 0xf1, 0xe7, 0xf0, 0xdb,
  0xfd, 0xdc, 0x1e, 0x29, 0x51, 0xef, 0x81, 0xce, 0xf1, 0x51, 0x0a, 0x18,
  0x09, 0x5d, 0xe2, 0xfa, 0x16, 0xc4, 0xde, 0x44, 0x06, 0x32, 0xeb, 0x18,
  0xe4, 0xea, 0xdc, 0x16, 0x50, 0x63, 0x61, 0x39, 0x0c, 0x00, 0x20, 0x81,
  0xc7, 0xee, 0x3e, 0x43, 0xa0, 0x37, 0xad, 0x96, 0xc3, 0xe7, 0xeb, 0xce,
  0x5e, 0xdf, 0xe1, 0x9f, 0x37, 0xe3, 0x3a, 0xed, 0x26, 0xce, 0x62, 0xdf,
  0x19, 0x81, 0xe5, 0x07, 0xbc, 0x11, 0xae, 0xec, 0x18, 0x2a, 0x19, 0x26,
  0x81, 0x0e, 0xbf, 0xde, 0x17, 0x15, 0x08, 0x17, 0xed, 0x0a, 0xe6, 0xde,
  0xf7, 0x32, 0xc5, 0x0f, 0x8a, 0xb5, 0x4a, 0x9a, 0xd6, 0xb8, 0xe6, 0x07,
  0x2b, 0xd4, 0xd8, 0xcc, 0xfd, 0x20, 0x64, 0x11, 0x06, 0xee, 0xff, 0xff,
  0x04, 0x00, 0x00, 0x00, 0xc0, 0x00, 0x00, 0x00, 0x87, 0xfd, 0xff, 0xff,
  0xbe, 0xfa, 0xff, 0xff, 0xa4, 0xf0, 0xff, 0xff, 0x4c, 0x04, 0x00, 0x00,
  0x26, 0x13, 0x00, 0x00, 0xab, 0x04, 0x00, 0x00, 0x4a, 0xed, 0xff, 0xff,
  0xac, 0xdf, 0xff, 0xff, 0x41, 0xf0, 0xff, 0xff, 0xfb, 0xf4, 0xff, 0xff,
  0xe2, 0xff, 0xff, 0xff, 0x73, 0xf8, 0xff, 0xff, 0x63, 0x04, 0x00, 0x00,
  0x22, 0x00, 0x00, 0x00, 0x69, 0x0e, 0x00, 0x00, 0x61, 0xfb, 0xff, 0xff,
  0x94, 0x09, 0x00, 0x00, 0xd2, 0x01, 0x00, 0x00, 0xb7, 0xfb, 0xff, 0xff,
  0x41, 0x15, 0x00, 0x00, 0x48, 0x02, 0x00, 0x00, 0x17, 0xfe, 0xff, 0xff,
  0x1a, 0x06, 0x00, 0x00, 0x49, 0xfe, 0xff, 0xff, 0xf9, 0xf9, 0xff, 0xff,
  0xa3, 0x0a, 0x00, 0x00, 0xa5, 0x03, 0x00, 0x00, 0x0e, 0x02, 0x00, 0x00,
  0x98, 0x08, 0x00, 0x00, 0x51, 0x02, 0x00, 0x00, 0xe1, 0x05, 0x00, 0x00,
  0x8f, 0x0b, 0x00, 0x00, 0x6e, 0xf7, 0xff, 0xff, 0x5a, 0x08, 0x00, 0x00,
  0x07, 0x0c, 0x00, 0x00, 0x5f, 0x0a, 0x00, 0x00, 0x22, 0x08, 0x00, 0x00,
  0x45, 0xf0, 0xff, 0xff, 0x98, 0xf0, 0xff, 0xff, 0x3a, 0x18, 0x00, 0x00,
  0x84, 0xf2, 0xff, 0xff, 0x5e, 0x06, 0x00, 0x00, 0xfa, 0xfc, 0xff, 0xff,
  0x44, 0x12, 0x00, 0x00, 0x72, 0x01, 0x00, 0x00, 0x71, 0xf7, 0xff, 0xff,
  0xf1, 0x07, 0x00, 0x00, 0xcb, 0x07, 0x00, 0x00, 0xd2, 0xee, 0xff, 0xff,
  0x04, 0x00, 0x00, 0x00, 0xb0, 0x01, 0x00, 0x00, 0x48, 0xe6, 0xc7, 0x78,
  0x34, 0x18, 0x91, 0x18, 0x4c, 0xa0, 0x7f, 0x0b, 0x36, 0x7f, 0x81, 0xfd,
  0x62, 0xfc, 0x81, 0xe9, 0x7f, 0xf6, 0x1b, 0xd1, 0x20, 0x82, 0x0b, 0x7f,
  0x0c, 0x29, 0x70, 0x47, 0x6f, 0xe7, 0xd3, 0x35, 0xe6, 0x72, 0x0d, 0x22,
  0x81, 0x7a, 0x50, 0xc0, 0xb2, 0x34, 0x94, 0x7f, 0x4a, 0x19, 0xc4, 0x7f,
  0x60, 0xfe, 0xd5, 0x23, 0x26, 0xdc, 0x60, 0x49, 0x03, 0x3d, 0x69, 0x81,
  0xed, 0x32, 0xef, 0xf4, 0x65, 0x26, 0x02, 0xdb, 0x3e, 0x81, 0x28, 0x6e,
  0x0f, 0x2c, 0x7f, 0x0b, 0x3f, 0xea, 0xd0, 0x04, 0xab, 0x58, 0x00, 0x5d,
  0xa9, 0x16, 0x21, 0x13, 0x05, 0x0e, 0x81, 0x13, 0x7f, 0x52, 0xd6, 0x6b,
  0x5f, 0xfa, 0x83, 0x5b, 0xbd, 0xe7, 0xe0, 0xf8, 0xed, 0x10, 0xcd, 0xd4,
  0x81, 0x3c, 0x81, 0x58, 0x3c, 0x16, 0xbc, 0x93, 0x7f, 0x86, 0x2d, 0x1e,
  0x9c, 0x5e, 0x59, 0x04, 0x05, 0x92, 0xfe, 0xfb, 0x9f, 0x4b, 0x4b, 0x2d,
  0xa2, 0x20, 0x3d, 0x0e, 0x5b, 0xd4, 0xb7, 0x79, 0xfe, 0x81, 0xa8, 0x2f,
  0x57, 0x7f, 0xa3, 0x20, 0xf3, 0x19, 0x5c, 0x16, 0x4a, 0xe4, 0x89, 0x31,
  0x5c, 0xfa, 0xcb, 0x10, 0x5c, 0xe6, 0x44, 0x6f, 0x17, 0x46, 0xff, 0x6d,
  0x01, 0x40, 0x4c, 0x23, 0x2c, 0x02, 0xda, 0x3d, 0xa0, 0xc9, 0xf8, 0x1d,
  0x04, 0x44, 0x42, 0xfe, 0x22, 0xfb, 0xdd, 0x52, 0x52, 0x8c, 0xd5, 0x0e,
  0x1f, 0x00, 0xe4, 0x1b, 0x9e, 0xe1, 0x32, 0x64, 0x7d, 0xb1, 0x7f, 0xd2,
  0xec, 0x2e, 0x15, 0x3c, 0x25, 0x0c, 0x43, 0x47, 0x1a, 0xeb, 0xe8, 0x35,
  0xe8, 0x06, 0x60, 0x06, 0x26, 0x11, 0xd4, 0x3e, 0xd6, 0xe1, 0x0c, 0x68,
  0x14, 0xed, 0x13, 0x01, 0xf9, 0xaa, 0x0c, 0x24, 0x6c, 0xc2, 0xe8, 0x16,
  0x19, 0x27, 0x90, 0x7f, 0x8c, 0xb4, 0xd1, 0x16, 0x60, 0xca, 0xcd, 0xec,
  0xb5, 0x7f, 0xea, 0x7f, 0x58, 0xbc, 0x81, 0x7f, 0x3b, 0x2d, 0xed, 0x43,
  0x96, 0x1b, 0x3f, 0x23, 0x0e, 0xdf, 0xec, 0x1c, 0xe6, 0xd5, 0x49, 0x32,
  0xf5, 0xc7, 0x33, 0x49, 0x02, 0x9f, 0x2a, 0x31, 0x08, 0x92, 0x02, 0x5a,
  0x7f, 0x53, 0x95, 0x27, 0x81, 0x7f, 0x39, 0x00, 0xfe, 0xfd, 0xa5, 0x39,
  0x72, 0xea, 0xce, 0x3a, 0x72, 0x81, 0x1c, 0x9d, 0xff, 0x0f, 0xc9, 0x79,
  0xfe, 0xac, 0x38, 0x2d, 0x7f, 0x03, 0x9e, 0x3b, 0x31, 0x81, 0xa0, 0x17,
  0xae, 0xe5, 0x7f, 0x58, 0x7f, 0xff, 0x5e, 0x58, 0x1d, 0xac, 0xe1, 0x6f,
  0x78, 0x06, 0xb8, 0x0a, 0xfa, 0x35, 0xf7, 0x7f, 0xf7, 0xb4, 0x39, 0xea,
  0x16, 0x00, 0xf0, 0x45, 0x21, 0xe1, 0x4a, 0xc0, 0x10, 0x22, 0xa1, 0x36,
  0xdb, 0xc2, 0x01, 0x1e, 0x2f, 0xf6, 0x81, 0x3e, 0x5d, 0x90, 0x81, 0x7f,
  0xc0, 0xcc, 0x31, 0x31, 0x45, 0xad, 0x37, 0x36, 0x65, 0xae, 0x81, 0x2e,
  0x47, 0x2c, 0x81, 0x27, 0x20, 0xc0, 0xaf, 0x38, 0x7f, 0xc1, 0xf9, 0x07,
  0xb7, 0x2a, 0xcd, 0x71, 0x7a, 0x89, 0xb7, 0xce, 0x6d, 0x6a, 0x81, 0x36,
  0x81, 0x81, 0x18, 0x7f, 0x29, 0x81, 0xa1, 0x7f, 0x7f, 0xb1, 0xa8, 0x54,
  0x8d, 0x81, 0x52, 0x7f, 0x0e, 0x81, 0x6d, 0xd1, 0x8e, 0xf0, 0xff, 0xff,
  0x04, 0x00, 0x00, 0x00, 0xc0, 0x00, 0x00, 0x00, 0x0c, 0xf3, 0xff, 0xff,
  0xc0, 0x13, 0x00, 0x00, 0x97, 0x10, 0x00, 0x00, 0x6f, 0xf4, 0xff, 0xff,
  0x79, 0xdf, 0xff, 0xff, 0xc8, 0xef, 0xff, 0xff, 0x4d, 0x13, 0x00, 0x00,
  0xc2, 0xfd, 0xff, 0xff, 0x29, 0x05, 0x00, 0x00, 0x9f, 0x00, 0x00, 0x00,
  0x79, 0xf6, 0xff, 0xff, 0xa6, 0xec, 0xff, 0xff, 0xe4, 0xec, 0xff, 0xff,
  0xd7, 0x00, 0x00, 0x00, 0x38, 0xff, 0xff, 0xff, 0x47, 0x01, 0x00, 0x00,
  0x86, 0xfb, 0xff, 0xff, 0x93, 0xf5, 0xff, 0xff, 0x77, 0x15, 0x00, 0x00,
  0xc0, 0xe6, 0xff, 0xff, 0xba, 0xf6, 0xff, 0xff, 0x57, 0x0c, 0x00, 0x00,
  0x4d, 0xfb, 0xff, 0xff, 0x58, 0xff, 0xff, 0xff, 0x25, 0xfa, 0xff, 0xff,
  0xab, 0xff, 0xff, 0xff, 0x38, 0x07, 0x00, 0x00, 0x8b, 0xe0, 0xff, 0xff,
  0xc4, 0x0e, 0x00, 0x00, 0xec, 0xfc, 0xff, 0xff, 0xa8, 0xe5, 0xff, 0xff,
  0xf7, 0xeb, 0xff, 0xff, 0x04, 0xee, 0xff, 0xff, 0xb4, 0x0c, 0x00, 0x00,
  0xa3, 0x17, 0x00, 0x00, 0x26, 0xef, 0xff, 0xff, 0x86, 0xfe, 0xff, 0xff,
  0x15, 0x05, 0x00, 0x00, 0x41, 0xfe, 0xff, 0xff, 0x73, 0xe7, 0xff, 0xff,
  0xaf, 0x0c, 0x00, 0x00, 0x31, 0xff, 0xff, 0xff, 0xa8, 0xfe, 0xff, 0xff,
  0xec, 0xf6, 0xff, 0xff, 0x2a, 0xf7, 0xff, 0xff, 0xcc, 0x0b, 0x00, 0x00,
  0x01, 0xfe, 0xff, 0xff, 0x0d, 0xef, 0xff, 0xff, 0x5a, 0xf1, 0xff, 0xff,
  0x04, 0x00, 0x00, 0x00, 0x00, 0x0c, 0x00, 0x00, 0x2e, 0x0f, 0x22, 0x39,
  0x38, 0x48, 0x9b, 0xc4, 0xce, 0x03, 0xaa, 0xe2, 0x3a, 0x34, 0xda, 0x28,
  0x23, 0x2b, 0x81, 0x10, 0x23, 0xbe, 0x1b, 0x04, 0xd6, 0xe8, 0xe7, 0x17,
  0xe5, 0x13, 0xf7, 0x21, 0x2e, 0xbc, 0xd7, 0x02, 0x21, 0xee, 0xee, 0x11,
  0xdc, 0x1b, 0xd3, 0x1f, 0x31, 0x22, 0x19, 0xf5, 0xc3, 0x31, 0xf6, 0x25,
  0x11, 0x05, 0xf3, 0xe2, 0xe3, 0xcb, 0xec, 0x7f, 0xd9, 0xae, 0xf2, 0xf6,
  0x58, 0x07, 0x5b, 0xcb, 0x01, 0x3b, 0x05, 0xc1, 0x3a, 0xe3, 0x08, 0xc4,
  0x7c, 0xf6, 0xec, 0xe0, 0xcf, 0x02, 0xdc, 0xb7, 0xed, 0xd8, 0x01, 0x39,
  0x0d, 0xdd, 0xd8, 0x3a, 0x15, 0x22, 0x2c, 0xb5, 0x6b, 0x09, 0xce, 0x29,
  0xd2, 0x1c, 0xed, 0x91, 0x99, 0xea, 0x93, 0x02, 0xda, 0x31, 0xfc, 0x54,
  0x1a, 0x30, 0x91, 0xca, 0x5c, 0xaa, 0x21, 0x3c, 0x93, 0x49, 0x0e, 0x0c,
  0x87, 0x74, 0xef, 0x5f, 0x42, 0x02, 0x15, 0x20, 0x26, 0x28, 0xd6, 0x7f,
  0x04, 0x32, 0xb7, 0x23, 0x51, 0xac, 0xfd, 0x21, 0x56, 0xcd, 0xcc, 0x68,
  0x32, 0x64, 0x95, 0x98, 0x05, 0xd7, 0xab, 0x0a, 0x1f, 0x4d, 0xc6, 0x10,
  0x1f, 0x20, 0x81, 0x3c, 0x53, 0xcb, 0x48, 0x31, 0xb2, 0xf6, 0xbf, 0x48,
  0xbf, 0x2c, 0xed, 0x13, 0x0a, 0x1e, 0x17, 0x0d, 0x42, 0xd5, 0xfb, 0x52,
  0xaa, 0x49, 0xd0, 0x38, 0x24, 0xbb, 0xfd, 0xf6, 0x48, 0xf3, 0x22, 0x46,
  0xef, 0x4b, 0xea, 0xc0, 0xf4, 0x96, 0x9d, 0x1c, 0x1f, 0x08, 0xb3, 0x11,
  0x21, 0x35, 0xeb, 0x0f, 0x4b, 0x43, 0xfc, 0x22, 0x81, 0x2e, 0x50, 0x04,
  0x89, 0xee, 0xd8, 0x2d, 0xe9, 0x89, 0x84, 0x7c, 0x17, 0xe4, 0xe9, 0xec,
  0xf8, 0x37, 0xcf, 0xf6, 0x1e, 0xfc, 0x21, 0x7e, 0x44, 0x87, 0x40, 0x40,
  0xf7, 0x7f, 0xaa, 0xad, 0xa7, 0xff, 0x81, 0xc7, 0x4a, 0x51, 0xad, 0x02,
  0x46, 0x13, 0x8f, 0x2d, 0x11, 0x8c, 0xe8, 0xfa, 0xdc, 0xdf, 0xd4, 0x26,
  0xe6, 0x73, 0xdc, 0x59, 0x4a, 0xef, 0x0f, 0x4f, 0x58, 0x47, 0x30, 0xee,
  0xbf, 0x58, 0xd6, 0x6d, 0x5f, 0xf6, 0xef, 0xce, 0x4b, 0xb7, 0x17, 0x3c,
  0xd5, 0x0b, 0xe6, 0x95, 0xd2, 0xb3, 0xeb, 0xd8, 0xcc, 0x4e, 0x9d, 0xe2,
  0x19, 0x55, 0x3e, 0xb2, 0x37, 0xf6, 0xec, 0x5a, 0x9a, 0x2b, 0x2b, 0x95,
  0xe2, 0x41, 0x7f, 0x24, 0xed, 0xe4, 0x09, 0x33, 0x15, 0x92, 0x03, 0xfa,
  0xf1, 0xd6, 0xc4, 0x13, 0x67, 0xe3, 0x4e, 0x09, 0xfd, 0x2e, 0xcf, 0xeb,
  0x25, 0xff, 0x6f, 0xd9, 0x72, 0x22, 0x08, 0x49, 0x06, 0xc1, 0xcd, 0x0a,
  0x7c, 0x3d, 0xc8, 0xba, 0xff, 0xe6, 0xb1, 0xc6, 0x33, 0xc8, 0x01, 0x64,
  0x0e, 0xae, 0xec, 0xcd, 0x09, 0x00, 0xa1, 0xcb, 0x96, 0x2d, 0x0d, 0xee,
  0xe2, 0x27, 0x7f, 0xc2, 0xcd, 0xa8, 0x45, 0xbd, 0x6c, 0x46, 0x15, 0x3d,
  0x25, 0x2c, 0xb7, 0xb3, 0xdb, 0xd8, 0xb9, 0x16, 0xf9, 0x42, 0xac, 0x0a,
  0x3a, 0x1c, 0x9c, 0x03, 0x6e, 0x81, 0xe9, 0x4f, 0x8d, 0x24, 0xf9, 0x18,
  0xf2, 0x43, 0xdc, 0x49, 0xd1, 0xa3, 0x16, 0x42, 0x3f, 0xe4, 0xc3, 0x38,
  0xd2, 0x0b, 0xc0, 0x0d, 0x3d, 0xe5, 0x08, 0x06, 0x5a, 0xf0, 0xfd, 0x5a,
  0xd1, 0x0b, 0xb1, 0x87, 0xb5, 0xe5, 0x00, 0xf9, 0x19, 0x5f, 0xa9, 0x30,
  0x0e, 0x2c, 0x24, 0xd8, 0x59, 0xf2, 0x0b, 0x7f, 0x95, 0x26, 0x48, 0xa4,
  0x02, 0x22, 0x66, 0x27, 0xde, 0xc6, 0xfb, 0x1f, 0x1b, 0xad, 0xbc, 0x33,
  0x19, 0xf6, 0xca, 0xf0, 0x4e, 0xa8, 0x44, 0x12, 0x45, 0x04, 0x35, 0x4f,
  0xd9, 0x27, 0x81, 0xd7, 0xaa, 0xdf, 0xbc, 0xe6, 0xf1, 0x30, 0xc9, 0x02,
  0x3a, 0x12, 0x9a, 0x16, 0x3a, 0xf9, 0x41, 0x1e, 0xab, 0x00, 0xd2, 0x10,
  0xec, 0x2e, 0xf6, 0xed, 0xe9, 0xdd, 0xcd, 0x47, 0x1f, 0x11, 0xb6, 0x38,
  0x1d, 0x0b, 0xda, 0xf1, 0x1d, 0xd6, 0x03, 0x20, 0xe7, 0x35, 0xc0, 0xce,
  0xcd, 0x0d, 0x1f, 0xe4, 0x64, 0x6d, 0x02, 0xf5, 0xdf, 0x92, 0xcd, 0x17,
  0x7f, 0x44, 0x02, 0x16, 0xdd, 0xf5, 0xab, 0xb3, 0x6a, 0xbd, 0x4e, 0x4a,
  0x0b, 0xda, 0xb2, 0xaf, 0x1c, 0xc0, 0xf1, 0xe1, 0x83, 0x72, 0xeb, 0xea,
  0xa1, 0x14, 0x7e, 0xde, 0x21, 0xc8, 0x33, 0xda, 0x53, 0xe2, 0x3c, 0x57,
  0xd3, 0x24, 0x81, 0x93, 0xa7, 0x07, 0x0a, 0xe1, 0x24, 0x52, 0xfd, 0x12,
  0x2e, 0x1f, 0xab, 0xbc, 0x5a, 0xae, 0x0f, 0x67, 0xa8, 0x0d, 0x18, 0x07,
  0xdd, 0x1b, 0x0e, 0x31, 0xd1, 0xba, 0xd2, 0x03, 0x1b, 0xdd, 0xa3, 0x5e,
  0x09, 0x24, 0xd0, 0x07, 0x51, 0xd1, 0x1f, 0x2b, 0xe7, 0xd0, 0x0c, 0x04,
  0x09, 0xff, 0x3c, 0x01, 0x15, 0x4f, 0x2f, 0xec, 0xf2, 0xb2, 0x1e, 0x3a,
  0x50, 0x5e, 0xda, 0xfe, 0x05, 0x05, 0xa8, 0xd5, 0x5b, 0xed, 0x2d, 0x48,
  0x06, 0xcb, 0xb4, 0xef, 0x44, 0x02, 0xc2, 0xd6, 0xaa, 0x38, 0x21, 0xda,
  0xc2, 0x38, 0x7f, 0xe5, 0xfb, 0x12, 0x24, 0xec, 0x08, 0x1c, 0xd6, 0xfe,
  0xfe, 0xe8, 0xfd, 0xde, 0x81, 0xb0, 0x14, 0x3f, 0xc2, 0xf7, 0xb0, 0x05,
  0xef, 0x16, 0x33, 0xb6, 0x3f, 0x34, 0xe9, 0x33, 0xa6, 0x09, 0xf8, 0x82,
  0x31, 0xe6, 0x1e, 0xb6, 0xc2, 0x1c, 0x5c, 0x25, 0x05, 0xcd, 0xcb, 0x42,
  0x78, 0xcf, 0xcb, 0xee, 0x5b, 0x25, 0x2c, 0xee, 0x4c, 0xc5, 0xeb, 0x5e,
  0xdd, 0x01, 0x81, 0xb8, 0xc1, 0xa7, 0x2a, 0x1a, 0xe2, 0x37, 0x9c, 0x00,
  0x05, 0x36, 0x11, 0xf6, 0x3a, 0xbe, 0x10, 0x4f, 0x9c, 0x2f, 0x41, 0xb3,
  0x3b, 0x02, 0x55, 0xf7, 0xc5, 0xbf, 0x40, 0xfe, 0xfa, 0xa6, 0xba, 0x2b,
  0xf0, 0xe9, 0xd4, 0xfd, 0x1d, 0xf6, 0x34, 0x27, 0x49, 0x9d, 0x1c, 0x3c,
  0x39, 0x29, 0x8c, 0xab, 0xab, 0x16, 0xeb, 0xcf, 0x33, 0x28, 0xef, 0xf4,
  0x21, 0x12, 0x81, 0x36, 0x32, 0xe1, 0x40, 0x31, 0xe3, 0x04, 0xf4, 0x35,
  0xe2, 0x18, 0xd4, 0x1c, 0x3a, 0xc2, 0x25, 0xe8, 0x33, 0x16, 0xce, 0x2f,
  0xd2, 0x45, 0xd4, 0x1b, 0x4a, 0xf7, 0x1c, 0xe5, 0xfd, 0x17, 0x06, 0xfb,
  0x7f, 0xe2, 0x19, 0x05, 0xf2, 0x01, 0xe3, 0x0c, 0x1c, 0xe4, 0xfa, 0x12,
  0x30, 0xfa, 0x1d, 0xf1, 0x0e, 0x34, 0xf6, 0xee, 0x13, 0x1f, 0xdc, 0xe5,
  0x21, 0xfa, 0xd7, 0xf4, 0xf8, 0x1e, 0x0c, 0xc0, 0x09, 0x1a, 0xfa, 0x66,
  0x0a, 0xe8, 0x2d, 0x1b, 0x20, 0x07, 0x13, 0xed, 0x3a, 0x09, 0x02, 0x3b,
  0x05, 0x35, 0xfc, 0xc9, 0x9f, 0xe8, 0xcf, 0xec, 0x07, 0x2d, 0xd5, 0x43,
  0x38, 0x06, 0x81, 0x30, 0x44, 0xfd, 0x19, 0x1c, 0xac, 0x03, 0x1b, 0x0e,
  0xc9, 0x39, 0xec, 0x3a, 0xe2, 0xe7, 0xd3, 0x49, 0x2c, 0xe3, 0xb3, 0x4e,
  0xce, 0x19, 0xd5, 0xf0, 0x3a, 0xa1, 0x0d, 0x0b, 0x3a, 0x05, 0x5d, 0x2a,
  0x1b, 0x3d, 0xd4, 0x88, 0xcd, 0xde, 0xff, 0xcb, 0xe2, 0x38, 0xe6, 0xb5,
  0x3b, 0x2d, 0xe0, 0x06, 0x5e, 0x81, 0x1f, 0x27, 0x9c, 0x33, 0x21, 0x07,
  0xb7, 0x00, 0xd3, 0xf5, 0x2d, 0xcb, 0x38, 0x1f, 0xef, 0xef, 0x06, 0x1e,
  0xb7, 0x42, 0xc8, 0xf1, 0x45, 0xcc, 0x1b, 0x3b, 0xf3, 0xf4, 0x0e, 0xfa,
  0xe5, 0x02, 0x24, 0x06, 0x5e, 0x25, 0x2a, 0xed, 0x10, 0xa8, 0x23, 0xfc,
  0x4e, 0x5b, 0xce, 0xcf, 0xec, 0xb8, 0xb0, 0xb8, 0x56, 0xd8, 0xf3, 0x5a,
  0xed, 0x0b, 0xe0, 0xd6, 0x44, 0xfc, 0xb1, 0xd3, 0xaf, 0x39, 0xd3, 0x10,
  0x87, 0x2d, 0x7f, 0xdb, 0xee, 0x0a, 0x2b, 0xe4, 0x5f, 0xe8, 0xfb, 0x1e,
  0xba, 0x4f, 0x9d, 0x81, 0xb5, 0xb9, 0x13, 0xe7, 0xc9, 0x50, 0xdc, 0xc1,
  0x39, 0x1c, 0xa8, 0xeb, 0x69, 0x85, 0x15, 0x57, 0x8a, 0xe4, 0xc3, 0x23,
  0xec, 0x24, 0xd7, 0x34, 0xaa, 0xa5, 0x3d, 0x4a, 0x43, 0xd0, 0xd2, 0x67,
  0xd8, 0x33, 0xc9, 0x23, 0x57, 0xa4, 0x10, 0x24, 0x3e, 0xc3, 0xfe, 0x6b,
  0x27, 0x5c, 0xcb, 0x3e, 0xca, 0x0d, 0xa3, 0xa5, 0x04, 0x7a, 0x0c, 0x0e,
  0x47, 0xee, 0x81, 0xea, 0xf8, 0x00, 0xc6, 0x33, 0xe9, 0x07, 0xdc, 0x56,
  0xeb, 0x4c, 0xe4, 0x42, 0xdb, 0xe5, 0xcb, 0x35, 0x36, 0x15, 0x12, 0xfa,
  0x90, 0x13, 0xe4, 0x5f, 0x0d, 0xf4, 0x01, 0xcf, 0x03, 0xf7, 0x81, 0xd0,
  0x1c, 0xe0, 0x3e, 0xd1, 0x14, 0x1b, 0xe7, 0x0f, 0x02, 0xc9, 0xc4, 0x0c,
  0x5e, 0x26, 0x01, 0xf4, 0xd8, 0x22, 0xd9, 0xce, 0x4a, 0xf0, 0x3c, 0x2b,
  0x2a, 0xed, 0x15, 0xd7, 0xf9, 0x13, 0xce, 0xe0, 0xb0, 0x29, 0xed, 0xeb,
  0xdc, 0x2a, 0x54, 0xd9, 0x29, 0xce, 0x12, 0xcf, 0xf0, 0xd9, 0xd1, 0xf6,
  0x18, 0xda, 0x79, 0xd0, 0x28, 0x00, 0xda, 0x48, 0x13, 0x04, 0xd4, 0xe9,
  0x47, 0x31, 0xda, 0x03, 0xd6, 0xfe, 0xb8, 0xec, 0xdd, 0xe4, 0x0a, 0x43,
  0x30, 0xf6, 0xcd, 0xfe, 0x17, 0xae, 0x03, 0xc9, 0xb0, 0x32, 0x16, 0x04,
  0xd1, 0x0e, 0x7f, 0xbc, 0xd2, 0xde, 0x47, 0xd0, 0x58, 0xdb, 0xe3, 0x32,
  0xe8, 0x07, 0xe9, 0x85, 0x81, 0xa1, 0x31, 0x45, 0xce, 0x34, 0xa9, 0x02,
  0xee, 0x08, 0xe1, 0x13, 0x3d, 0xb8, 0x35, 0x5d, 0x99, 0x18, 0x49, 0x8d,
  0x22, 0x4f, 0x2c, 0x15, 0xdb, 0x9f, 0x2a, 0x0f, 0x11, 0xb9, 0xad, 0x04,
  0x45, 0xe9, 0xc7, 0xf4, 0x5b, 0x07, 0x4f, 0x3c, 0xee, 0x4d, 0x3b, 0x4a,
  0x46, 0xd7, 0xfe, 0xce, 0xaf, 0xc4, 0x1b, 0x57, 0xde, 0xf0, 0xc0, 0x04,
  0xf6, 0x15, 0xf2, 0xbb, 0x3c, 0x5e, 0x05, 0x21, 0x97, 0x23, 0xf3, 0x81,
  0x53, 0x04, 0x41, 0x94, 0xa4, 0xe1, 0x06, 0x0e, 0x02, 0xbd, 0xaf, 0x13,
  0x5f, 0xab, 0xc2, 0x17, 0x72, 0x22, 0x32, 0x2e, 0x5a, 0xb7, 0x12, 0x3e,
  0x49, 0x47, 0xe1, 0x8e, 0x0a, 0xd0, 0xb2, 0xc7, 0xde, 0x4a, 0xfd, 0x36,
  0x3b, 0x28, 0x81, 0x5d, 0x2e, 0xfa, 0x0e, 0x4f, 0xca, 0xfc, 0xcc, 0x11,
  0xe9, 0x4e, 0xef, 0x04, 0x25, 0xfb, 0xd2, 0x3f, 0x4a, 0xcb, 0x1e, 0x11,
  0xac, 0x51, 0xca, 0x25, 0x42, 0xa9, 0xd4, 0xf8, 0x6e, 0x26, 0xf4, 0x4a,
  0x24, 0x21, 0xc8, 0x81, 0xc1, 0xc5, 0xa0, 0xe0, 0xf6, 0x62, 0x8d, 0x05,
  0x22, 0xfe, 0x9f, 0xf1, 0x59, 0xc7, 0xca, 0x2e, 0xb2, 0x35, 0xb1, 0xcf,
  0xbb, 0x36, 0xd8, 0x1d, 0x40, 0x96, 0x3a, 0x22, 0x3d, 0xd6, 0xf8, 0x19,
  0x0c, 0x2f, 0xc2, 0x51, 0x54, 0x88, 0x1e, 0x12, 0xf7, 0x0f, 0x82, 0xde,
  0x08, 0x12, 0xfa, 0xee, 0x55, 0x5a, 0x1b, 0x2a, 0x29, 0xa2, 0xe0, 0x35,
  0x69, 0x30, 0xc6, 0xe5, 0xe6, 0x11, 0xbf, 0xa4, 0x5e, 0xe3, 0xf5, 0x56,
  0x00, 0xbb, 0xcf, 0xe3, 0x12, 0xea, 0x9a, 0xde, 0x8d, 0x1f, 0xd5, 0xde,
  0xbb, 0x32, 0x7f, 0xed, 0xdf, 0x29, 0x3e, 0xe1, 0xf4, 0x4e, 0xb0, 0xf0,
  0x75, 0xfa, 0x28, 0xc9, 0xc1, 0xb4, 0x20, 0x20, 0xbd, 0x24, 0xdf, 0xde,
  0xe7, 0x1e, 0x21, 0xdb, 0x3e, 0x12, 0xfa, 0x3e, 0xb8, 0x0b, 0x3c, 0x81,
  0x2d, 0xde, 0x67, 0x9f, 0xc9, 0x1f, 0x15, 0x02, 0x0b, 0xd2, 0xdd, 0x32,
  0x7a, 0xd1, 0xcf, 0x1a, 0x4c, 0x1b, 0x44, 0x08, 0x5c, 0xbb, 0x64, 0x60,
  0x3e, 0x3b, 0xb1, 0x9b, 0xc2, 0xd0, 0xf2, 0xc1, 0xca, 0x7f, 0xcb, 0xbe,
  0x5b, 0xff, 0xae, 0x24, 0x44, 0xc6, 0x48, 0x65, 0xc4, 0x1f, 0xdc, 0xfe,
  0xf8, 0x1d, 0xda, 0xff, 0xd7, 0xab, 0x29, 0x41, 0x30, 0xeb, 0xf5, 0x33,
  0xab, 0x3f, 0xd8, 0xf0, 0x27, 0xec, 0x34, 0x05, 0x5e, 0x45, 0x55, 0x5e,
  0x10, 0x17, 0xbc, 0x96, 0xc1, 0xec, 0xe0, 0xf1, 0x04, 0x4a, 0xc0, 0xd8,
  0x3e, 0xff, 0x81, 0x24, 0x60, 0x8e, 0x49, 0x4c, 0x9b, 0x13, 0xc2, 0x06,
  0xd2, 0x05, 0xf8, 0xd8, 0xc6, 0xe7, 0xe8, 0x18, 0x2c, 0xf6, 0x90, 0x18,
  0xde, 0x0c, 0xc8, 0x09, 0x45, 0x9b, 0x50, 0x2f, 0xf1, 0x07, 0xf8, 0xfb,
  0x2a, 0xc1, 0x67, 0xcb, 0x0d, 0x3f, 0xf7, 0x1f, 0x34, 0xac, 0xcb, 0x20,
  0x70, 0x59, 0xf2, 0xf8, 0xec, 0x2b, 0xeb, 0xc7, 0x40, 0xe9, 0x2f, 0x63,
  0xeb, 0xe5, 0xf9, 0x0c, 0x15, 0xff, 0xc3, 0xe3, 0xab, 0x26, 0x1a, 0x13,
  0xd8, 0x3f, 0x7f, 0xb5, 0xf0, 0xc4, 0x30, 0xcb, 0x3d, 0xb3, 0xda, 0x5c,
  0xfb, 0x3a, 0xe5, 0x9e, 0xdd, 0xf8, 0xa2, 0xe0, 0x4d, 0x3a, 0xdd, 0x35,
  0x39, 0x36, 0xc6, 0x31, 0x1d, 0xba, 0x1b, 0x43, 0xd5, 0x07, 0xd0, 0x14,
  0xf0, 0x45, 0xe0, 0x25, 0x1a, 0xb6, 0xd9, 0x1c, 0x3d, 0xf5, 0x1c, 0x52,
  0x81, 0x27, 0xce, 0x0c, 0x1d, 0x02, 0x10, 0xf6, 0x02, 0x38, 0x81, 0xec,
  0x0c, 0xd3, 0x15, 0xdb, 0x46, 0x33, 0x0b, 0x44, 0x24, 0xc4, 0xd5, 0xf2,
  0x6d, 0x24, 0xf2, 0xea, 0xf1, 0x23, 0xd9, 0xc8, 0x20, 0xf3, 0xfd, 0x29,
  0x02, 0xd6, 0xef, 0xf9, 0xfb, 0xf4, 0xb5, 0xe3, 0xb0, 0x2f, 0xd1, 0xee,
  0xd0, 0x25, 0x63, 0xdb, 0xdb, 0x02, 0x27, 0xd3, 0x2a, 0x44, 0x28, 0x73,
  0xa4, 0x15, 0x97, 0x81, 0x9d, 0xe4, 0x03, 0xd9, 0xcc, 0x43, 0xfc, 0xf1,
  0x38, 0xea, 0xa5, 0xe2, 0x77, 0xe3, 0x67, 0x59, 0xaa, 0x32, 0x11, 0xfd,
  0xcd, 0x44, 0xf8, 0x2d, 0xf1, 0xe4, 0xf8, 0x1c, 0x11, 0xe5, 0xcd, 0x4c,
  0x3c, 0x15, 0xe3, 0xd3, 0x17, 0xda, 0x30, 0x55, 0x39, 0x1f, 0x25, 0x2e,
  0x22, 0x2d, 0x81, 0x9b, 0xae, 0xda, 0xff, 0xcc, 0xe5, 0x2c, 0xc2, 0xdb,
  0x33, 0x2c, 0xc1, 0xc2, 0x55, 0xd0, 0x03, 0x40, 0x9a, 0x0a, 0xd2, 0xe6,
  0x01, 0x3a, 0xf8, 0x21, 0xec, 0xba, 0xef, 0x10, 0x1e, 0xdf, 0xe1, 0x17,
  0xe5, 0x11, 0xc7, 0x0d, 0x5c, 0xe7, 0x13, 0x25, 0x5a, 0xe5, 0x32, 0x25,
  0x2b, 0x21, 0xc4, 0xe2, 0xc5, 0xf6, 0xd6, 0xce, 0xe5, 0x7f, 0xe0, 0x19,
  0x37, 0xea, 0xf2, 0x27, 0x1f, 0xed, 0x25, 0x39, 0xf4, 0x26, 0xca, 0xef,
  0xe8, 0x19, 0x00, 0x08, 0xec, 0xd3, 0x42, 0x35, 0x52, 0xef, 0xf4, 0x0d,
  0x8c, 0x3f, 0xef, 0x04, 0xef, 0x33, 0xf4, 0xd3, 0x4a, 0x13, 0xf2, 0x7f,
  0xed, 0x2b, 0xa0, 0xac, 0x9b, 0xb9, 0xb2, 0x31, 0xb4, 0x3f, 0xc3, 0x1a,
  0x20, 0x03, 0xb3, 0x41, 0x30, 0xc0, 0x41, 0x25, 0xaa, 0x29, 0xa4, 0xea,
  0xfb, 0x46, 0xc6, 0xf2, 0x18, 0xcd, 0xf9, 0x6a, 0x24, 0xce, 0x05, 0x32,
  0xf9, 0xff, 0xd8, 0x02, 0x16, 0xd5, 0x23, 0x25, 0x2e, 0x09, 0xe7, 0xdd,
  0xf8, 0xc0, 0xf4, 0x00, 0x42, 0x08, 0x22, 0x07, 0x03, 0xc4, 0xc9, 0x56,
  0x70, 0x3a, 0x0f, 0x0e, 0xce, 0x19, 0xc8, 0xe9, 0xf7, 0xe7, 0x47, 0x0b,
  0xee, 0xb0, 0xd0, 0xdf, 0x3e, 0xbd, 0xf7, 0xe6, 0xd7, 0x27, 0xae, 0xeb,
  0x12, 0x17, 0x7f, 0x06, 0x0b, 0x01, 0x55, 0xc4, 0x78, 0xc9, 0x17, 0x45,
  0xc9, 0x2f, 0xde, 0xb2, 0xa2, 0xe1, 0x81, 0x09, 0x1f, 0x57, 0xa3, 0x67,
  0x26, 0x44, 0xd0, 0x35, 0x58, 0xc1, 0x30, 0x17, 0x8c, 0x35, 0xfd, 0x27,
  0xad, 0x41, 0x10, 0x1e, 0x44, 0x05, 0xbd, 0x06, 0x37, 0xf5, 0x1a, 0x45,
  0xc4, 0x3a, 0xc0, 0x32, 0x1c, 0xdf, 0xe5, 0x1b, 0x2c, 0x1d, 0xe1, 0x04,
  0xf0, 0x12, 0xb0, 0xb8, 0x8a, 0xa0, 0xd9, 0x13, 0x17, 0x2f, 0x81, 0xfd,
  0xfe, 0x4e, 0x0c, 0xe6, 0x53, 0x44, 0xe3, 0x60, 0x89, 0xec, 0xb5, 0x86,
  0x18, 0xf7, 0x52, 0xd3, 0xfd, 0xba, 0x38, 0x11, 0x2d, 0xbd, 0xc2, 0xf1,
  0x7f, 0xda, 0xb9, 0xf0, 0x5c, 0xf8, 0x07, 0xf3, 0x7f, 0xe3, 0x62, 0x3c,
  0x43, 0x4c, 0xd1, 0xf5, 0xcd, 0xdd, 0x9e, 0x1b, 0xf1, 0x74, 0xc1, 0xf0,
  0x5a, 0x11, 0x82, 0xfc, 0x2e, 0xd3, 0x01, 0x37, 0xb7, 0x46, 0xd7, 0x67,
  0x97, 0x47, 0xeb, 0x5b, 0xe7, 0xa5, 0x3d, 0x47, 0x43, 0xf7, 0xf2, 0x67,
  0xec, 0x39, 0xd8, 0x1c, 0x2a, 0xa0, 0xdc, 0xec, 0xf1, 0xee, 0xc5, 0xe1,
  0x54, 0xd8, 0x61, 0xbe, 0xc1, 0xae, 0x0b, 0x21, 0xef, 0xde, 0xc3, 0x11,
  0x2c, 0x56, 0x18, 0xfe, 0xb4, 0xdf, 0x00, 0xe1, 0xd7, 0xf1, 0x33, 0x22,
  0x5b, 0xd3, 0x02, 0x21, 0xb6, 0xe8, 0x08, 0xa3, 0xcc, 0x14, 0x81, 0x56,
  0xcf, 0xc6, 0x3f, 0x52, 0x55, 0x1f, 0x37, 0xca, 0xf1, 0x1a, 0xd1, 0xfe,
  0x43, 0xef, 0x59, 0xf8, 0xe8, 0xf1, 0xe9, 0x04, 0xe9, 0xdd, 0xd1, 0xf9,
  0xe1, 0x07, 0x14, 0x0a, 0x2f, 0x55, 0xc0, 0x1e, 0xe2, 0x14, 0x18, 0x96,
  0x34, 0xe6, 0x59, 0xa1, 0x0e, 0x15, 0x0e, 0x0c, 0x01, 0xe9, 0xe5, 0x0d,
  0x7f, 0xdc, 0xde, 0x12, 0x18, 0x2a, 0xf3, 0x11, 0x4b, 0xad, 0x2d, 0x78,
  0xdf, 0x2f, 0x96, 0xad, 0x11, 0x03, 0x81, 0xcc, 0x1b, 0x3e, 0x10, 0x08,
  0x43, 0x58, 0xb9, 0xc8, 0x00, 0x8b, 0x52, 0x3b, 0xd5, 0x23, 0x16, 0x2d,
  0xf3, 0x5c, 0xe9, 0x11, 0x09, 0xf6, 0xc7, 0xfe, 0x3c, 0x30, 0xd3, 0x29,
  0xc8, 0x5f, 0xcd, 0x31, 0x3b, 0xed, 0x03, 0x12, 0x73, 0xae, 0x52, 0x41,
  0x3f, 0x45, 0xcf, 0xa2, 0xb6, 0xaf, 0xc8, 0x1d, 0xd4, 0x60, 0xd6, 0x1d,
  0x2f, 0xef, 0x9b, 0xeb, 0x41, 0x88, 0x50, 0x16, 0x98, 0x3c, 0xd0, 0x23,
  0xba, 0x32, 0xc5, 0x12, 0xd7, 0xa2, 0x2e, 0x57, 0x2b, 0xdc, 0x81, 0x37,
  0x98, 0x1d, 0xc8, 0x33, 0x62, 0x82, 0x41, 0x0a, 0x05, 0xfe, 0xc7, 0xc5,
  0xe6, 0x14, 0x33, 0xef, 0x13, 0x55, 0x06, 0x1c, 0x4a, 0xae, 0xe9, 0xfe,
  0x64, 0x27, 0xf4, 0xd6, 0xf2, 0x08, 0xdd, 0xbd, 0x5f, 0xe1, 0x30, 0x4c,
  0xe3, 0xd8, 0xd0, 0xf1, 0x33, 0xff, 0xad, 0xeb, 0x9c, 0x42, 0x16, 0x18,
  0xb4, 0x33, 0x7f, 0xbc, 0xfb, 0xfa, 0x1d, 0xdd, 0x24, 0x17, 0x08, 0xfb,
  0x34, 0xcb, 0xec, 0xe9, 0x36, 0xf7, 0x18, 0xf6, 0x08, 0xde, 0xfa, 0xff,
  0x1d, 0x21, 0xf3, 0x11, 0xd9, 0xe2, 0xe9, 0xef, 0xc8, 0x09, 0x16, 0x1b,
  0xea, 0x07, 0xec, 0xda, 0x17, 0xf7, 0x00, 0xce, 0xf6, 0x21, 0x0e, 0x16,
  0xf7, 0xe9, 0x7f, 0x22, 0xff, 0x08, 0xff, 0xfd, 0x06, 0x5b, 0x81, 0xce,
  0x0f, 0xef, 0x6b, 0xec, 0x0e, 0xdd, 0xeb, 0x45, 0xe7, 0xfe, 0xf3, 0xfc,
  0x25, 0xfe, 0x3b, 0x33, 0xe3, 0x29, 0x13, 0xff, 0x04, 0xef, 0x0b, 0xce,
  0x0c, 0xe0, 0x4a, 0xd6, 0xe1, 0x07, 0x0e, 0xf1, 0xee, 0xba, 0xd8, 0xfc,
  0x00, 0xe8, 0xe1, 0x29, 0x54, 0x0d, 0x27, 0x98, 0x27, 0x36, 0x3e, 0x5b,
  0xf8, 0x0b, 0x81, 0x9a, 0x9c, 0xc3, 0x09, 0x10, 0xd8, 0x23, 0xcd, 0xd6,
  0x2b, 0x37, 0xce, 0xc3, 0x52, 0xf1, 0x1f, 0x4d, 0x99, 0x28, 0xe5, 0x11,
  0x29, 0x4f, 0xcb, 0x17, 0xd2, 0xd9, 0x09, 0x43, 0x26, 0xf2, 0xe4, 0x25,
  0x36, 0xd6, 0xd5, 0xe5, 0x27, 0xb7, 0x28, 0x31, 0x48, 0xcc, 0x0e, 0x42,
  0x30, 0x2e, 0xc0, 0xaa, 0xc2, 0xea, 0xc0, 0x01, 0x09, 0x33, 0x0f, 0x21,
  0x22, 0xfc, 0xbe, 0xe5, 0x45, 0x81, 0xee, 0x14, 0xbb, 0x1c, 0xed, 0x11,
  0xe2, 0x2f, 0xe4, 0x28, 0x33, 0xc5, 0x1a, 0x08, 0x1d, 0xd5, 0xda, 0x46,
  0xdb, 0x2f, 0xd7, 0x00, 0x3d, 0xf5, 0x23, 0x20, 0x47, 0x1d, 0xf4, 0x64,
  0xeb, 0x2e, 0x81, 0xbb, 0xbc, 0xee, 0xda, 0xfd, 0xd6, 0x34, 0xd1, 0xfa,
  0x2e, 0xf3, 0xf3, 0x0a, 0x6b, 0xba, 0x31, 0x32, 0xa4, 0x08, 0x01, 0x10,
  0x14, 0x51, 0xe9, 0x2b, 0xe6, 0xb7, 0x35, 0x39, 0x23, 0xd3, 0xbe, 0x4d,
  0x02, 0x0a, 0xe2, 0x01, 0xfd, 0x91, 0x1f, 0x30, 0x30, 0xd4, 0x09, 0x50,
  0xdc, 0x2e, 0xd1, 0x81, 0xf4, 0xdd, 0xd6, 0xe5, 0x4d, 0x58, 0x02, 0x03,
  0x3a, 0x35, 0xae, 0xd5, 0x48, 0xd3, 0x3b, 0x2f, 0xc2, 0x43, 0xbf, 0x2c,
  0xc7, 0x69, 0xce, 0x4d, 0xfb, 0x01, 0x28, 0x09, 0x2e, 0xcf, 0xcc, 0x20,
  0x02, 0x3b, 0xd0, 0x48, 0x39, 0x2b, 0x24, 0xfa, 0x39, 0x1d, 0x3e, 0x7f,
  0x07, 0x17, 0xcb, 0xb2, 0xf9, 0xfb, 0xe8, 0xc6, 0x0f, 0x54, 0x20, 0xd3,
  0x3e, 0x24, 0x90, 0x49, 0x45, 0x82, 0x42, 0x3d, 0xcf, 0x0f, 0x0c, 0x12,
  0x26, 0x14, 0xcc, 0x11, 0xdf, 0xf4, 0x2d, 0x4d, 0x1e, 0x0b, 0x04, 0x22,
  0x2c, 0x0f, 0xe1, 0xf2, 0x08, 0xee, 0x18, 0xee, 0xe9, 0x25, 0x81, 0xf2,
  0xee, 0xde, 0x21, 0xe3, 0xf0, 0xe0, 0xda, 0x10, 0x1d, 0xd7, 0xe3, 0xf2,
  0x4a, 0x2a, 0x07, 0xfe, 0xd9, 0xf4, 0xd0, 0xe0, 0x16, 0xf4, 0x26, 0x14,
  0x33, 0xf7, 0x39, 0x02, 0xf4, 0xf3, 0x05, 0xe7, 0xc6, 0xfd, 0xe3, 0xfa,
  0xf2, 0x0a, 0x4a, 0xeb, 0xfe, 0xd9, 0x1b, 0xcc, 0xd8, 0xa0, 0xdf, 0x07,
  0xce, 0xe9, 0x2c, 0xd9, 0x4f, 0x5b, 0x45, 0xfe, 0x57, 0xc9, 0x43, 0x4f,
  0x34, 0x4e, 0x81, 0xc9, 0xd3, 0xcd, 0xa5, 0xe3, 0x35, 0xf2, 0x0f, 0x39,
  0x04, 0xff, 0xbc, 0x49, 0x57, 0x38, 0xcb, 0xe0, 0xc8, 0x45, 0xbe, 0x11,
  0xbf, 0x1e, 0x75, 0xcf, 0x0e, 0xe0, 0xf8, 0xe6, 0x10, 0xb5, 0x9a, 0xcb,
  0x08, 0xe8, 0x6d, 0xda, 0x34, 0x62, 0x45, 0x1a, 0x25, 0x99, 0x34, 0x07,
  0x4d, 0x3f, 0xc8, 0xda, 0xf1, 0x18, 0xca, 0xc4, 0x68, 0xc7, 0x2a, 0x4b,
  0xda, 0xbb, 0x82, 0xd2, 0x43, 0xed, 0x82, 0xcd, 0x97, 0x48, 0x49, 0xdd,
  0xac, 0x35, 0x7f, 0xe2, 0x36, 0xca, 0x14, 0xda, 0xf3, 0x05, 0xa5, 0xde,
  0x0c, 0x16, 0x41, 0xf1, 0x7f, 0x44, 0x12, 0x19, 0xfc, 0xb7, 0xf6, 0x55,
  0x5f, 0x41, 0xa7, 0x00, 0xdc, 0xf1, 0xc2, 0xba, 0x61, 0xe0, 0x12, 0x74,
  0x2d, 0xd9, 0xbe, 0xd3, 0x25, 0x12, 0x9c, 0xc6, 0x97, 0x38, 0xde, 0xd2,
  0xe6, 0x32, 0x79, 0xe5, 0x0c, 0xbe, 0x14, 0xec, 0xdc, 0xe5, 0xde, 0x29,
  0x16, 0x10, 0xdb, 0xe1, 0x57, 0x5f, 0x5b, 0xcb, 0x77, 0xd6, 0x72, 0xe9,
  0x2b, 0x7f, 0xb1, 0x44, 0xc8, 0xaf, 0xb5, 0xed, 0x5e, 0xdf, 0x01, 0x1e,
  0xdb, 0xd9, 0xca, 0xd0, 0x7e, 0x2d, 0xd7, 0xd6, 0xcb, 0x3d, 0xe6, 0xd4,
  0x9e, 0xec, 0x73, 0xe6, 0xea, 0xa5, 0xca, 0xe8, 0xe2, 0x07, 0xd8, 0x06,
  0x17, 0xd0, 0x53, 0x05, 0x44, 0x66, 0xf9, 0x36, 0xcb, 0xc6, 0xc7, 0x48,
  0x59, 0x35, 0x09, 0x13, 0xeb, 0x01, 0xfb, 0xc1, 0x36, 0xe2, 0x2c, 0x2c,
  0xea, 0xdd, 0xf0, 0xde, 0xf5, 0xdf, 0xbc, 0xfa, 0xb7, 0x48, 0xdc, 0xfe,
  0xec, 0x29, 0x7f, 0xc9, 0x18, 0xeb, 0x2a, 0xc6, 0x43, 0xce, 0xb3, 0x6c,
  0x01, 0x13, 0xea, 0x9d, 0xc5, 0x8d, 0xfb, 0xe5, 0xdd, 0x2f, 0x81, 0xd4,
  0x18, 0x56, 0xf1, 0xcc, 0x5e, 0xe5, 0xe3, 0x5d, 0x89, 0x25, 0xef, 0xb5,
  0x00, 0x4d, 0x37, 0x16, 0xfa, 0x9a, 0x2d, 0x2d, 0x27, 0x83, 0xfa, 0x1c,
  0x4e, 0xd9, 0xbd, 0xf1, 0x47, 0xf4, 0x0c, 0x22, 0xdf, 0xf2, 0xdf, 0xf9,
  0xf5, 0xfd, 0x1f, 0xd2, 0x1a, 0x78, 0x3a, 0x13, 0x1f, 0xdc, 0xf2, 0xdb,
  0x4b, 0x21, 0xca, 0xfb, 0xfb, 0x41, 0xf6, 0xe4, 0x49, 0xe1, 0x34, 0x44,
  0xed, 0xbc, 0xdd, 0x02, 0x07, 0xf5, 0x9b, 0xe7, 0xba, 0x5e, 0x10, 0xf3,
  0xc2, 0x3c, 0x7f, 0xde, 0x01, 0xeb, 0x15, 0xe0, 0x66, 0xfd, 0xff, 0xff,
  0x04, 0x00, 0x00, 0x00, 0x00, 0x01, 0x00, 0x00, 0xf4, 0x04, 0x00, 0x00,
  0x48, 0xfd, 0xff, 0xff, 0xa8, 0xff, 0xff, 0xff, 0xb4, 0x03, 0x00, 0x00,
  0x08, 0x00, 0x00, 0x00, 0xa3, 0x03, 0x00, 0x00, 0xbe, 0xfd, 0xff, 0xff,
  0xdb, 0x03, 0x00, 0x00, 0x2c, 0x02, 0x00, 0x00, 0x63, 0xfd, 0xff, 0xff,
  0x5c, 0x03, 0x00, 0x00, 0xdb, 0x03, 0x00, 0x00, 0x7c, 0x02, 0x00, 0x00,
  0xe1, 0x00, 0x00, 0x00, 0xdc, 0xfc, 0xff, 0xff, 0x26, 0x01, 0x00, 0x00,
  0xe2, 0x04, 0x00, 0x00, 0x1b, 0xfb, 0xff, 0xff, 0x67, 0x02, 0x00, 0x00,
  0x9b, 0x01, 0x00, 0x00, 0xb7, 0x05, 0x00, 0x00, 0x32, 0x05, 0x00, 0x00,
  0xcd, 0x04, 0x00, 0x00, 0xff, 0x01, 0x00, 0x00, 0xf8, 0x03, 0x00, 0x00,
  0x5f, 0xff, 0xff, 0xff, 0x5b, 0xfc, 0xff, 0xff, 0x16, 0x03, 0x00, 0x00,
  0x38, 0x04, 0x00, 0x00, 0xb1, 0x06, 0x00, 0x00, 0xc6, 0xfa, 0xff, 0xff,
  0x3c, 0x02, 0x00, 0x00, 0xc0, 0x04, 0x00, 0x00, 0x43, 0xfe, 0xff, 0xff,
  0x17, 0x05, 0x00, 0x00, 0xcb, 0x03, 0x00, 0x00, 0xda, 0xfe, 0xff, 0xff,
  0x41, 0x04, 0x00, 0x00, 0xb3, 0x00, 0x00, 0x00, 0x2e, 0x04, 0x00, 0x00,
  0x54, 0x00, 0x00, 0x00, 0x0d, 0x00, 0x00, 0x00, 0xd0, 0x00, 0x00, 0x00,
  0x5c, 0xfe, 0xff, 0xff, 0x91, 0x00, 0x00, 0x00, 0x39, 0xfa, 0xff, 0xff,
  0xc7, 0x01, 0x00, 0x00, 0xe6, 0x05, 0x00, 0x00, 0xeb, 0x02, 0x00, 0x00,
  0x3b, 0x00, 0x00, 0x00, 0x38, 0xfe, 0xff, 0xff, 0x07, 0xff, 0xff, 0xff,
  0x25, 0x03, 0x00, 0x00, 0xee, 0xff, 0xff, 0xff, 0x3a, 0xfe, 0xff, 0xff,
  0xf4, 0xfd, 0xff, 0xff, 0x31, 0x03, 0x00, 0x00, 0xe5, 0x05, 0x00, 0x00,
  0xe9, 0x07, 0x00, 0x00, 0x40, 0x04, 0x00, 0x00, 0x49, 0x09, 0x00, 0x00,
  0x9d, 0xff, 0xff, 0xff, 0xbc, 0x00, 0x00, 0x00, 0xc9, 0x01, 0x00, 0x00,
  0x72, 0xfe, 0xff, 0xff, 0x04, 0x00, 0x00, 0x00, 0xc0, 0x00, 0x00, 0x00,
  0x1b, 0x21, 0x9c, 0xe9, 0xda, 0x10, 0xbd, 0x68, 0xb3, 0xb0, 0x9a, 0x7f,
  0xa1, 0x65, 0xb1, 0xa4, 0xd2, 0xfa, 0xaf, 0xae, 0x71, 0xc1, 0x0d, 0x53,
  0x46, 0xe4, 0xb8, 0xd7, 0xca, 0x36, 0xb5, 0xc5, 0xc7, 0x52, 0xd6, 0x76,
  0x9d, 0x9d, 0xd3, 0xb6, 0x54, 0xce, 0xdc, 0xc7, 0x3c, 0xc1, 0x06, 0xa4,
  0x60, 0x25, 0xe4, 0xc7, 0xab, 0xa9, 0xab, 0xb2, 0x30, 0x60, 0x50, 0x4e,
  0x2f, 0x65, 0xbf, 0x5a, 0x7d, 0xff, 0x5a, 0x68, 0x41, 0x6c, 0x27, 0xd4,
  0x6e, 0x30, 0x42, 0xba, 0x7b, 0xe2, 0xea, 0x17, 0x0a, 0xd1, 0x7f, 0x7a,
  0x21, 0x79, 0x74, 0x9d, 0x9f, 0x2e, 0xfb, 0x50, 0x79, 0xae, 0xe5, 0x5a,
  0x6c, 0xd6, 0x3c, 0xbf, 0x21, 0x61, 0x53, 0x52, 0xa9, 0x3c, 0x1e, 0x1a,
  0x09, 0xe9, 0x6f, 0x73, 0xc3, 0xdc, 0xb4, 0x57, 0x44, 0x67, 0x38, 0x55,
  0xa7, 0x18, 0xea, 0xe0, 0x06, 0xaf, 0x20, 0xfc, 0xcb, 0x31, 0xbf, 0xc6,
  0xe8, 0x9f, 0x21, 0xea, 0xeb, 0x1d, 0xdd, 0xd0, 0x14, 0x9a, 0x2b, 0x1c,
  0xa7, 0x2d, 0xdf, 0xce, 0xc9, 0x0b, 0xa5, 0x05, 0xec, 0x20, 0x2b, 0xb8,
  0x0b, 0xb3, 0x28, 0xe3, 0x06, 0xfa, 0xb3, 0xf0, 0xf7, 0x14, 0xd9, 0xed,
  0xf1, 0xd3, 0x2a, 0xb6, 0x38, 0x1a, 0xc9, 0xce, 0xa9, 0x05, 0x1e, 0x21,
  0xbd, 0x06, 0xba, 0xc0, 0x16, 0x95, 0xa2, 0xba, 0x81, 0xf0, 0x1a, 0xda,
  0x3e, 0xff, 0xff, 0xff, 0x04, 0x00, 0x00, 0x00, 0x0c, 0x00, 0x00, 0x00,
  0x3a, 0x00, 0x00, 0x00, 0x59, 0x00, 0x00, 0x00, 0xdc, 0xff, 0xff, 0xff,
  0x56, 0xff, 0xff, 0xff, 0x04, 0x00, 0x00, 0x00, 0x08, 0x00, 0x00, 0x00,
  0x01, 0x00, 0x00, 0x00, 0x02, 0x00, 0x00, 0x00, 0xc8, 0xda, 0xff, 0xff,
  0xcc, 0xda, 0xff, 0xff, 0x0f, 0x00, 0x00, 0x00, 0x4d, 0x4c, 0x49, 0x52,
  0x20, 0x43, 0x6f, 0x6e, 0x76, 0x65, 0x72, 0x74, 0x65, 0x64, 0x2e, 0x00,
  0x01, 0x00, 0x00, 0x00, 0x14, 0x00, 0x00, 0x00, 0x00, 0x00, 0x0e, 0x00,
  0x18, 0x00, 0x14, 0x00, 0x10, 0x00, 0x0c, 0x00, 0x08, 0x00, 0x04, 0x00,
  0x0e, 0x00, 0x00, 0x00, 0x14, 0x00, 0x00, 0x00, 0x1c, 0x00, 0x00, 0x00,
  0x94, 0x02, 0x00, 0x00, 0x98, 0x02, 0x00, 0x00, 0x9c, 0x02, 0x00, 0x00,
  0x04, 0x00, 0x00, 0x00, 0x6d, 0x61, 0x69, 0x6e, 0x00, 0x00, 0x00, 0x00,
  0x08, 0x00, 0x00, 0x00, 0x30, 0x02, 0x00, 0x00, 0xc8, 0x01, 0x00, 0x00,
  0x68, 0x01, 0x00, 0x00, 0x20, 0x01, 0x00, 0x00, 0xcc, 0x00, 0x00, 0x00,
  0x84, 0x00, 0x00, 0x00, 0x40, 0x00, 0x00, 0x00, 0x04, 0x00, 0x00, 0x00,
  0x62, 0xfe, 0xff, 0xff, 0x1c, 0x00, 0x00, 0x00, 0x00, 0x00, 0x00, 0x09,
  0x1c, 0x00, 0x00, 0x00, 0x20, 0x00, 0x00, 0x00, 0x03, 0x00, 0x00, 0x00,
  0x00, 0x00, 0x06, 0x00, 0x08, 0x00, 0x04, 0x00, 0x06, 0x00, 0x00, 0x00,
  0x00, 0x00, 0x80, 0x3f, 0x01, 0x00, 0x00, 0x00, 0x15, 0x00, 0x00, 0x00,
  0x01, 0x00, 0x00, 0x00, 0x14, 0x00, 0x00, 0x00, 0x3a, 0xff, 0xff, 0xff,
  0x14, 0x00, 0x00, 0x00, 0x00, 0x00, 0x00, 0x1b, 0x10, 0x00, 0x00, 0x00,
  0x14, 0x00, 0x00, 0x00, 0x02, 0x00, 0x00, 0x00, 0x94, 0xdb, 0xff, 0xff,
  0x01, 0x00, 0x00, 0x00, 0x14, 0x00, 0x00, 0x00, 0x02, 0x00, 0x00, 0x00,
  0x13, 0x00, 0x00, 0x00, 0x01, 0x00, 0x00, 0x00, 0x00, 0x00, 0x0e, 0x00,
  0x16, 0x00, 0x00, 0x00, 0x10, 0x00, 0x0c, 0x00, 0x0b, 0x00, 0x04, 0x00,
  0x0e, 0x00, 0x00, 0x00, 0x1c, 0x00, 0x00, 0x00, 0x00, 0x00, 0x00, 0x01,
  0x20, 0x00, 0x00, 0x00, 0x24, 0x00, 0x00, 0x00, 0x00, 0x00, 0x0a, 0x00,
  0x0c, 0x00, 0x00, 0x00, 0x08, 0x00, 0x04, 0x00, 0x0a, 0x00, 0x00, 0x00,
  0x01, 0x00, 0x00, 0x00, 0x01, 0x00, 0x00, 0x00, 0x01, 0x00, 0x00, 0x00,
  0x13, 0x00, 0x00, 0x00, 0x03, 0x00, 0x00, 0x00, 0x12, 0x00, 0x00, 0x00,
  0x03, 0x00, 0x00, 0x00, 0x02, 0x00, 0x00, 0x00, 0xba, 0xfe, 0xff, 0xff,
  0x10, 0x00, 0x00, 0x00, 0x00, 0x00, 0x00, 0x01, 0x1c, 0x00, 0x00, 0x00,
  0x20, 0x00, 0x00, 0x00, 0x6c, 0xff, 0xff, 0xff, 0x00, 0x00, 0x00, 0x01,
  0x01, 0x00, 0x00, 0x00, 0x01, 0x00, 0x00, 0x00, 0x00, 0x00, 0x00, 0x01,
  0x01, 0x00, 0x00, 0x00, 0x12, 0x00, 0x00, 0x00, 0x03, 0x00, 0x00, 0x00,
  0x11, 0x00, 0x00, 0x00, 0x05, 0x00, 0x00, 0x00, 0x04, 0x00, 0x00, 0x00,
  0x00, 0x00, 0x0e, 0x00, 0x18, 0x00, 0x14, 0x00, 0x10, 0x00, 0x0c, 0x00,
  0x0b, 0x00, 0x04, 0x00, 0x0e, 0x00, 0x00, 0x00, 0x14, 0x00, 0x00, 0x00,
  0x00, 0x00, 0x00, 0x02, 0x20, 0x00, 0x00, 0x00, 0x24, 0x00, 0x00, 0x00,
  0x01, 0x00, 0x00, 0x00, 0x5e, 0xff, 0xff, 0xff, 0x00, 0x00, 0x00, 0x01,
  0x01, 0x00, 0x00, 0x00, 0x01, 0x00, 0x00, 0x00, 0x01, 0x00, 0x00, 0x00,
  0x01, 0x00, 0x00, 0x00, 0x11, 0x00, 0x00, 0x00, 0x03, 0x00, 0x00, 0x00,
  0x10, 0x00, 0x00, 0x00, 0x07, 0x00, 0x00, 0x00, 0x06, 0x00, 0x00, 0x00,
  0x4e, 0xff, 0xff, 0xff, 0x1c, 0x00, 0x00, 0x00, 0x00, 0x00, 0x00, 0x01,
  0x28, 0x00, 0x00, 0x00, 0x2c, 0x00, 0x00, 0x00, 0x0c, 0x00, 0x14, 0x00,
  0x13, 0x00, 0x0c, 0x00, 0x08, 0x00, 0x07, 0x00, 0x0c, 0x00, 0x00, 0x00,
  0x00, 0x00, 0x00, 0x01, 0x01, 0x00, 0x00, 0x00, 0x01, 0x00, 0x00, 0x00,
  0x00, 0x00, 0x00, 0x01, 0x01, 0x00, 0x00, 0x00, 0x10, 0x00, 0x00, 0x00,
  0x03, 0x00, 0x00, 0x00, 0x0f, 0x00, 0x00, 0x00, 0x09, 0x00, 0x00, 0x00,
  0x08, 0x00, 0x00, 0x00, 0x00, 0x00, 0x0e, 0x00, 0x1a, 0x00, 0x14, 0x00,
  0x10, 0x00, 0x0c, 0x00, 0x0b, 0x00, 0x04, 0x00, 0x0e, 0x00, 0x00, 0x00,
  0x24, 0x00, 0x00, 0x00, 0x00, 0x00, 0x00, 0x02, 0x30, 0x00, 0x00, 0x00,
  0x34, 0x00, 0x00, 0x00, 0x01, 0x00, 0x00, 0x00, 0x00, 0x00, 0x0e, 0x00,
  0x14, 0x00, 0x00, 0x00, 0x10, 0x00, 0x0c, 0x00, 0x08, 0x00, 0x07, 0x00,
  0x0e, 0x00, 0x00, 0x00, 0x00, 0x00, 0x00, 0x01, 0x01, 0x00, 0x00, 0x00,
  0x01, 0x00, 0x00, 0x00, 0x01, 0x00, 0x00, 0x00, 0x01, 0x00, 0x00, 0x00,
  0x0f, 0x00, 0x00, 0x00, 0x03, 0x00, 0x00, 0x00, 0x0e, 0x00, 0x00, 0x00,
  0x0b, 0x00, 0x00, 0x00, 0x0a, 0x00, 0x00, 0x00, 0x00, 0x00, 0x0e, 0x00,
  0x14, 0x00, 0x00, 0x00, 0x10, 0x00, 0x0c, 0x00, 0x0b, 0x00, 0x04, 0x00,
  0x0e, 0x00, 0x00, 0x00, 0x1c, 0x00, 0x00, 0x00, 0x00, 0x00, 0x00, 0x01,
  0x24, 0x00, 0x00, 0x00, 0x28, 0x00, 0x00, 0x00, 0x0c, 0x00, 0x10, 0x00,
  0x00, 0x00, 0x0c, 0x00, 0x08, 0x00, 0x07, 0x00, 0x0c, 0x00, 0x00, 0x00,
  0x00, 0x00, 0x00, 0x01, 0x02, 0x00, 0x00, 0x00, 0x02, 0x00, 0x00, 0x00,
  0x01, 0x00, 0x00, 0x00, 0x0e, 0x00, 0x00, 0x00, 0x03, 0x00, 0x00, 0x00,
  0x00, 0x00, 0x00, 0x00, 0x0d, 0x00, 0x00, 0x00, 0x0c, 0x00, 0x00, 0x00,
  0x01, 0x00, 0x00, 0x00, 0x15, 0x00, 0x00, 0x00, 0x01, 0x00, 0x00, 0x00,
  0x00, 0x00, 0x00, 0x00, 0x16, 0x00, 0x00, 0x00, 0x8c, 0x22, 0x00, 0x00,
  0x30, 0x22, 0x00, 0x00, 0xa0, 0x21, 0x00, 0x00, 0x1c, 0x21, 0x00, 0x00,
  0xc8, 0x1d, 0x00, 0x00, 0x64, 0x1a, 0x00, 0x00, 0xd0, 0x17, 0x00, 0x00,
  0x14, 0x15, 0x00, 0x00, 0x68, 0x12, 0x00, 0x00, 0xc4, 0x0f, 0x00, 0x00,
  0xf0, 0x0d, 0x00, 0x00, 0x08, 0x0c, 0x00, 0x00, 0x30, 0x0a, 0x00, 0x00,
  0x4c, 0x08, 0x00, 0x00, 0x38, 0x07, 0x00, 0x00, 0xac, 0x05, 0x00, 0x00,
  0x90, 0x04, 0x00, 0x00, 0x04, 0x03, 0x00, 0x00, 0xe8, 0x01, 0x00, 0x00,
  0x14, 0x01, 0x00, 0x00, 0x80, 0x00, 0x00, 0x00, 0x04, 0x00, 0x00, 0x00,
  0xe2, 0xdd, 0xff, 0xff, 0x00, 0x00, 0x00, 0x01, 0x18, 0x00, 0x00, 0x00,
  0x20, 0x00, 0x00, 0x00, 0x3c, 0x00, 0x00, 0x00, 0x16, 0x00, 0x00, 0x00,
  0x00, 0x00, 0x00, 0x09, 0x50, 0x00, 0x00, 0x00, 0x02, 0x00, 0x00, 0x00,
  0xff, 0xff, 0xff, 0xff, 0x03, 0x00, 0x00, 0x00, 0xc4, 0xdd, 0xff, 0xff,
  0x08, 0x00, 0x00, 0x00, 0x10, 0x00, 0x00, 0x00, 0x01, 0x00, 0x00, 0x00,
  0x80, 0xff, 0xff, 0xff, 0xff, 0xff, 0xff, 0xff, 0x01, 0x00, 0x00, 0x00,
  0x00, 0x00, 0x80, 0x3b, 0x1b, 0x00, 0x00, 0x00, 0x53, 0x74, 0x61, 0x74,
  0x65, 0x66, 0x75, 0x6c, 0x50, 0x61, 0x72, 0x74, 0x69, 0x74, 0x69, 0x6f,
  0x6e, 0x65, 0x64, 0x43, 0x61, 0x6c, 0x6c, 0x5f, 0x31, 0x3a, 0x30, 0x00,
  0x02, 0x00, 0x00, 0x00, 0x01, 0x00, 0x00, 0x00, 0x03, 0x00, 0x00, 0x00,
  0x5a, 0xde, 0xff, 0xff, 0x00, 0x00, 0x00, 0x01, 0x18, 0x00, 0x00, 0x00,
  0x20, 0x00, 0x00, 0x00, 0x40, 0x00, 0x00, 0x00, 0x15, 0x00, 0x00, 0x00,
  0x00, 0x00, 0x00, 0x09, 0x68, 0x00, 0x00, 0x00, 0x02, 0x00, 0x00, 0x00,
  0xff, 0xff, 0xff, 0xff, 0x03, 0x00, 0x00, 0x00, 0x3c, 0xde, 0xff, 0xff,
  0x08, 0x00, 0x00, 0x00, 0x14, 0x00, 0x00, 0x00, 0x01, 0x00, 0x00, 0x00,
  0x21, 0x00, 0x00, 0x00, 0x00, 0x00, 0x00, 0x00, 0x00, 0x00, 0x00, 0x00,
  0x01, 0x00, 0x00, 0x00, 0x76, 0xe2, 0x0b, 0x3e, 0x2c, 0x00, 0x00, 0x00,
  0x66, 0x75, 0x6e, 0x63, 0x74, 0x69, 0x6f, 0x6e, 0x61, 0x6c, 0x5f, 0x31,
  0x2f, 0x67, 0x6c, 0x6f, 0x62, 0x61, 0x6c, 0x5f, 0x61, 0x76, 0x65, 0x72,
  0x61, 0x67, 0x65, 0x5f, 0x70, 0x6f, 0x6f, 0x6c, 0x69, 0x6e, 0x67, 0x32,
  0x64, 0x5f, 0x31, 0x2f, 0x4d, 0x65, 0x61, 0x6e, 0x00, 0x00, 0x00, 0x00,
  0x02, 0x00, 0x00, 0x00, 0x01, 0x00, 0x00, 0x00, 0x03, 0x00, 0x00, 0x00,
  0xea, 0xde, 0xff, 0xff, 0x00, 0x00, 0x00, 0x01, 0x18, 0x00, 0x00, 0x00,
  0x28, 0x00, 0x00, 0x00, 0x44, 0x00, 0x00, 0x00, 0x14, 0x00, 0x00, 0x00,
  0x00, 0x00, 0x00, 0x09, 0xa0, 0x00, 0x00, 0x00, 0x04, 0x00, 0x00, 0x00,
  0xff, 0xff, 0xff, 0xff, 0x1f, 0x00, 0x00, 0x00, 0x14, 0x00, 0x00, 0x00,
  0x03, 0x00, 0x00, 0x00, 0xd4, 0xde, 0xff, 0xff, 0x08, 0x00, 0x00, 0x00,
  0x10, 0x00, 0x00, 0x00, 0x01, 0x00, 0x00, 0x00, 0xfa, 0xff, 0xff, 0xff,
  0xff, 0xff, 0xff, 0xff, 0x01, 0x00, 0x00, 0x00, 0xea, 0x1f, 0xc5, 0x3f,
  0x63, 0x00, 0x00, 0x00, 0x66, 0x75, 0x6e, 0x63, 0x74, 0x69, 0x6f, 0x6e,
  0x61, 0x6c, 0x5f, 0x31, 0x2f, 0x63, 0x6f, 0x6e, 0x76, 0x32, 0x64, 0x5f,
  0x33, 0x5f, 0x31, 0x2f, 0x42, 0x69, 0x61, 0x73, 0x41, 0x64, 0x64, 0x3b,
  0x66, 0x75, 0x6e, 0x63, 0x74, 0x69, 0x6f, 0x6e, 0x61, 0x6c, 0x5f, 0x31,
  0x2f, 0x63, 0x6f, 0x6e, 0x76, 0x32, 0x64, 0x5f, 0x33, 0x5f, 0x31, 0x2f,
  0x63, 0x6f, 0x6e, 0x76, 0x6f, 0x6c, 0x75, 0x74, 0x69, 0x6f, 0x6e, 0x3b,
  0x66, 0x75, 0x6e, 0x63, 0x74, 0x69, 0x6f, 0x6e, 0x61, 0x6c, 0x5f, 0x31,
  0x2f, 0x63, 0x6f, 0x6e, 0x76, 0x32, 0x64, 0x5f, 0x33, 0x5f, 0x31, 0x2f,
  0x53, 0x71, 0x75, 0x65, 0x65, 0x7a, 0x65, 0x00, 0x04, 0x00, 0x00, 0x00,
  0x01, 0x00, 0x00, 0x00, 0x1f, 0x00, 0x00, 0x00, 0x14, 0x00, 0x00, 0x00,
  0x03, 0x00, 0x00, 0x00, 0xba, 0xdf, 0xff, 0xff, 0x00, 0x00, 0x00, 0x01,
  0x18, 0x00, 0x00, 0x00, 0x28, 0x00, 0x00, 0x00, 0x48, 0x00, 0x00, 0x00,
  0x13, 0x00, 0x00, 0x00, 0x00, 0x00, 0x00, 0x09, 0xe8, 0x00, 0x00, 0x00,
  0x04, 0x00, 0x00, 0x00, 0xff, 0xff, 0xff, 0xff, 0x1f, 0x00, 0x00, 0x00,
  0x14, 0x00, 0x00, 0x00, 0x40, 0x00, 0x00, 0x00, 0xa4, 0xdf, 0xff, 0xff,
  0x08, 0x00, 0x00, 0x00, 0x14, 0x00, 0x00, 0x00, 0x01, 0x00, 0x00, 0x00,
  0x80, 0xff, 0xff, 0xff, 0xff, 0xff, 0xff, 0xff, 0x00, 0x00, 0x00, 0x00,
  0x01, 0x00, 0x00, 0x00, 0xf6, 0x45, 0xf3, 0x3d, 0xa7, 0x00, 0x00, 0x00,
  0x66, 0x75, 0x6e, 0x63, 0x74, 0x69, 0x6f, 0x6e, 0x61, 0x6c, 0x5f, 0x31,
  0x2f, 0x72, 0x65, 0x5f, 0x6c, 0x75, 0x5f, 0x34, 0x5f, 0x31, 0x2f, 0x52,
  0x65, 0x6c, 0x75, 0x3b, 0x66, 0x75, 0x6e, 0x63, 0x74, 0x69, 0x6f, 0x6e,
  0x61, 0x6c, 0x5f, 0x31, 0x2f, 0x62, 0x61, 0x74, 0x63, 0x68, 0x5f, 0x6e,
  0x6f, 0x72, 0x6d, 0x61, 0x6c, 0x69, 0x7a, 0x61, 0x74, 0x69, 0x6f, 0x6e,
  0x5f, 0x34, 0x5f, 0x31, 0x2f, 0x62, 0x61, 0x74, 0x63, 0x68, 0x6e, 0x6f,
  0x72, 0x6d, 0x2f, 0x61, 0x64, 0x64, 0x5f, 0x31, 0x3b, 0x66, 0x75, 0x6e,
  0x63, 0x74, 0x69, 0x6f, 0x6e, 0x61, 0x6c, 0x5f, 0x31, 0x2f, 0x63, 0x6f,
  0x6e, 0x76, 0x32, 0x64, 0x5f, 0x32, 0x5f, 0x31, 0x2f, 0x63, 0x6f, 0x6e,
  0x76, 0x6f, 0x6c, 0x75, 0x74, 0x69, 0x6f, 0x6e, 0x3b, 0x66, 0x75, 0x6e,
  0x63, 0x74, 0x69, 0x6f, 0x6e, 0x61, 0x6c, 0x5f, 0x31, 0x2f, 0x62, 0x61,
  0x74, 0x63, 0x68, 0x5f, 0x6e, 0x6f, 0x72, 0x6d, 0x61, 0x6c, 0x69, 0x7a,
  0x61, 0x74, 0x69, 0x6f, 0x6e, 0x5f, 0x34, 0x5f, 0x31, 0x2f, 0x62, 0x61,
  0x74, 0x63, 0x68, 0x6e, 0x6f, 0x72, 0x6d, 0x2f, 0x73, 0x75, 0x62, 0x00,
  0x04, 0x00, 0x00, 0x00, 0x01, 0x00, 0x00, 0x00, 0x1f, 0x00, 0x00, 0x00,
  0x14, 0x00, 0x00, 0x00, 0x40, 0x00, 0x00, 0x00, 0xd2, 0xe0, 0xff, 0xff,
  0x00, 0x00, 0x00, 0x01, 0x18, 0x00, 0x00, 0x00, 0x28, 0x00, 0x00, 0x00,
  0x48, 0x00, 0x00, 0x00, 0x12, 0x00, 0x00, 0x00, 0x00, 0x00, 0x00, 0x09,
  0x58, 0x01, 0x00, 0x00, 0x04, 0x00, 0x00, 0x00, 0xff, 0xff, 0xff, 0xff,
  0x1f, 0x00, 0x00, 0x00, 0x14, 0x00, 0x00, 0x00, 0x30, 0x00, 0x00, 0x00,
  0xbc, 0xe0, 0xff, 0xff, 0x08, 0x00, 0x00, 0x00, 0x14, 0x00, 0x00, 0x00,
  0x01, 0x00, 0x00, 0x00, 0x80, 0xff, 0xff, 0xff, 0xff, 0xff, 0xff, 0xff,
  0x00, 0x00, 0x00, 0x00, 0x01, 0x00, 0x00, 0x00, 0x31, 0x9c, 0xbd, 0x3d,
  0x17, 0x01, 0x00, 0x00, 0x66, 0x75, 0x6e, 0x63, 0x74, 0x69, 0x6f, 0x6e,
  0x61, 0x6c, 0x5f, 0x31, 0x2f, 0x72, 0x65, 0x5f, 0x6c, 0x75, 0x5f, 0x33,
  0x5f, 0x31, 0x2f, 0x52, 0x65, 0x6c, 0x75, 0x3b, 0x66, 0x75, 0x6e, 0x63,
  0x74, 0x69, 0x6f, 0x6e, 0x61, 0x6c, 0x5f, 0x31, 0x2f, 0x62, 0x61, 0x74,
  0x63, 0x68, 0x5f, 0x6e, 0x6f, 0x72, 0x6d, 0x61, 0x6c, 0x69, 0x7a, 0x61,
  0x74, 0x69, 0x6f, 0x6e, 0x5f, 0x33, 0x5f, 0x31, 0x2f, 0x62, 0x61, 0x74,
  0x63, 0x68, 0x6e, 0x6f, 0x72, 0x6d, 0x2f, 0x61, 0x64, 0x64, 0x5f, 0x31,
  0x3b, 0x66, 0x75, 0x6e, 0x63, 0x74, 0x69, 0x6f, 0x6e, 0x61, 0x6c, 0x5f,
  0x31, 0x2f, 0x62, 0x61, 0x74, 0x63, 0x68, 0x5f, 0x6e, 0x6f, 0x72, 0x6d,
  0x61, 0x6c, 0x69, 0x7a, 0x61, 0x74, 0x69, 0x6f, 0x6e, 0x5f, 0x33, 0x5f,
  0x31, 0x2f, 0x62, 0x61, 0x74, 0x63, 0x68, 0x6e, 0x6f, 0x72, 0x6d, 0x2f,
  0x6d, 0x75, 0x6c, 0x5f, 0x31, 0x3b, 0x66, 0x75, 0x6e, 0x63, 0x74, 0x69,
  0x6f, 0x6e, 0x61, 0x6c, 0x5f, 0x31, 0x2f, 0x64, 0x65, 0x70, 0x74, 0x68,
  0x77, 0x69, 0x73, 0x65, 0x5f, 0x63, 0x6f, 0x6e, 0x76, 0x32, 0x64, 0x5f,
  0x31, 0x5f, 0x32, 0x2f, 0x64, 0x65, 0x70, 0x74, 0x68, 0x77, 0x69, 0x73,
  0x65, 0x3b, 0x66, 0x75, 0x6e, 0x63, 0x74, 0x69, 0x6f, 0x6e, 0x61, 0x6c,
  0x5f, 0x31, 0x2f, 0x62, 0x61, 0x74, 0x63, 0x68, 0x5f, 0x6e, 0x6f, 0x72,
  0x6d, 0x61, 0x6c, 0x69, 0x7a, 0x61, 0x74, 0x69, 0x6f, 0x6e, 0x5f, 0x33,
  0x5f, 0x31, 0x2f, 0x62, 0x61, 0x74, 0x63, 0x68, 0x6e, 0x6f, 0x72, 0x6d,
  0x2f, 0x6d, 0x75, 0x6c, 0x3b, 0x66, 0x75, 0x6e, 0x63, 0x74, 0x69, 0x6f,
  0x6e, 0x61, 0x6c, 0x5f, 0x31, 0x2f, 0x62, 0x61, 0x74, 0x63, 0x68, 0x5f,
  0x6e, 0x6f, 0x72, 0x6d, 0x61, 0x6c, 0x69, 0x7a, 0x61, 0x74, 0x69, 0x6f,
  0x6e, 0x5f, 0x33, 0x5f, 0x31, 0x2f, 0x62, 0x61, 0x74, 0x63, 0x68, 0x6e,
  0x6f, 0x72, 0x6d, 0x2f, 0x73, 0x75, 0x62, 0x00, 0x04, 0x00, 0x00, 0x00,
  0x01, 0x00, 0x00, 0x00, 0x1f, 0x00, 0x00, 0x00, 0x14, 0x00, 0x00, 0x00,
  0x30, 0x00, 0x00, 0x00, 0x5a, 0xe2, 0xff, 0xff, 0x00, 0x00, 0x00, 0x01,
  0x18, 0x00, 0x00, 0x00, 0x28, 0x00, 0x00, 0x00, 0x48, 0x00, 0x00, 0x00,
  0x11, 0x00, 0x00, 0x00, 0x00, 0x00, 0x00, 0x09, 0xe8, 0x00, 0x00, 0x00,
  0x04, 0x00, 0x00, 0x00, 0xff, 0xff, 0xff, 0xff, 0x1f, 0x00, 0x00, 0x00,
  0x14, 0x00, 0x00, 0x00, 0x30, 0x00, 0x00, 0x00, 0x44, 0xe2, 0xff, 0xff,
  0x08, 0x00, 0x00, 0x00, 0x14, 0x00, 0x00, 0x00, 0x01, 0x00, 0x00, 0x00,
  0x80, 0xff, 0xff, 0xff, 0xff, 0xff, 0xff, 0xff, 0x00, 0x00, 0x00, 0x00,
  0x01, 0x00, 0x00, 0x00, 0x9a, 0xa5, 0x17, 0x3d, 0xa7, 0x00, 0x00, 0x00,
  0x66, 0x75, 0x6e, 0x63, 0x74, 0x69, 0x6f, 0x6e, 0x61, 0x6c, 0x5f, 0x31,
  0x2f, 0x72, 0x65, 0x5f, 0x6c, 0x75, 0x5f, 0x32, 0x5f, 0x31, 0x2f, 0x52,
  0x65, 0x6c, 0x75, 0x3b, 0x66, 0x75, 0x6e, 0x63, 0x74, 0x69, 0x6f, 0x6e,
  0x61, 0x6c, 0x5f, 0x31, 0x2f, 0x62, 0x61, 0x74, 0x63, 0x68, 0x5f, 0x6e,
  0x6f, 0x72, 0x6d, 0x61, 0x6c, 0x69, 0x7a, 0x61, 0x74, 0x69, 0x6f, 0x6e,
  0x5f, 0x32, 0x5f, 0x31, 0x2f, 0x62, 0x61, 0x74, 0x63, 0x68, 0x6e, 0x6f,
  0x72, 0x6d, 0x2f, 0x61, 0x64, 0x64, 0x5f, 0x31, 0x3b, 0x66, 0x75, 0x6e,
  0x63, 0x74, 0x69, 0x6f, 0x6e, 0x61, 0x6c, 0x5f, 0x31, 0x2f, 0x63, 0x6f,
  0x6e, 0x76, 0x32, 0x64, 0x5f, 0x31, 0x5f, 0x32, 0x2f, 0x63, 0x6f, 0x6e,
  0x76, 0x6f, 0x6c, 0x75, 0x74, 0x69, 0x6f, 0x6e, 0x3b, 0x66, 0x75, 0x6e,
  0x63, 0x74, 0x69, 0x6f, 0x6e, 0x61, 0x6c, 0x5f, 0x31, 0x2f, 0x62, 0x61,
  0x74, 0x63, 0x68, 0x5f, 0x6e, 0x6f, 0x72, 0x6d, 0x61, 0x6c, 0x69, 0x7a,
  0x61, 0x74, 0x69, 0x6f, 0x6e, 0x5f, 0x32, 0x5f, 0x31, 0x2f, 0x62, 0x61,
  0x74, 0x63, 0x68, 0x6e, 0x6f, 0x72, 0x6d, 0x2f, 0x73, 0x75, 0x62, 0x00,
  0x04, 0x00, 0x00, 0x00, 0x01, 0x00, 0x00, 0x00, 0x1f, 0x00, 0x00, 0x00,
  0x14, 0x00, 0x00, 0x00, 0x30, 0x00, 0x00, 0x00, 0x72, 0xe3, 0xff, 0xff,
  0x00, 0x00, 0x00, 0x01, 0x18, 0x00, 0x00, 0x00, 0x28, 0x00, 0x00, 0x00,
  0x48, 0x00, 0x00, 0x00, 0x10, 0x00, 0x00, 0x00, 0x00, 0x00, 0x00, 0x09,
  0x58, 0x01, 0x00, 0x00, 0x04, 0x00, 0x00, 0x00, 0xff, 0xff, 0xff, 0xff,
  0x1f, 0x00, 0x00, 0x00, 0x14, 0x00, 0x00, 0x00, 0x20, 0x00, 0x00, 0x00,
  0x5c, 0xe3, 0xff, 0xff, 0x08, 0x00, 0x00, 0x00, 0x14, 0x00, 0x00, 0x00,
  0x01, 0x00, 0x00, 0x00, 0x80, 0xff, 0xff, 0xff, 0xff, 0xff, 0xff, 0xff,
  0x00, 0x00, 0x00, 0x00, 0x01, 0x00, 0x00, 0x00, 0xc6, 0xba, 0x6a, 0x3d,
  0x15, 0x01, 0x00, 0x00, 0x66, 0x75, 0x6e, 0x63, 0x74, 0x69, 0x6f, 0x6e,
  0x61, 0x6c, 0x5f, 0x31, 0x2f, 0x72, 0x65, 0x5f, 0x6c, 0x75, 0x5f, 0x31,
  0x5f, 0x32, 0x2f, 0x52, 0x65, 0x6c, 0x75, 0x3b, 0x66, 0x75, 0x6e, 0x63,
  0x74, 0x69, 0x6f, 0x6e, 0x61, 0x6c, 0x5f, 0x31, 0x2f, 0x62, 0x61, 0x74,
  0x63, 0x68, 0x5f, 0x6e, 0x6f, 0x72, 0x6d, 0x61, 0x6c, 0x69, 0x7a, 0x61,
  0x74, 0x69, 0x6f, 0x6e, 0x5f, 0x31, 0x5f, 0x32, 0x2f, 0x62, 0x61, 0x74,
  0x63, 0x68, 0x6e, 0x6f, 0x72, 0x6d, 0x2f, 0x61, 0x64, 0x64, 0x5f, 0x31,
  0x3b, 0x66, 0x75, 0x6e, 0x63, 0x74, 0x69, 0x6f, 0x6e, 0x61, 0x6c, 0x5f,
  0x31, 0x2f, 0x62, 0x61, 0x74, 0x63, 0x68, 0x5f, 0x6e, 0x6f, 0x72, 0x6d,
  0x61, 0x6c, 0x69, 0x7a, 0x61, 0x74, 0x69, 0x6f, 0x6e, 0x5f, 0x31, 0x5f,
  0x32, 0x2f, 0x62, 0x61, 0x74, 0x63, 0x68, 0x6e, 0x6f, 0x72, 0x6d, 0x2f,
  0x6d, 0x75, 0x6c, 0x5f, 0x31, 0x3b, 0x66, 0x75, 0x6e, 0x63, 0x74, 0x69,
  0x6f, 0x6e, 0x61, 0x6c, 0x5f, 0x31, 0x2f, 0x64, 0x65, 0x70, 0x74, 0x68,
  0x77, 0x69, 0x73, 0x65, 0x5f, 0x63, 0x6f, 0x6e, 0x76, 0x32, 0x64, 0x5f,
  0x31, 0x2f, 0x64, 0x65, 0x70, 0x74, 0x68, 0x77, 0x69, 0x73, 0x65, 0x3b,
  0x66, 0x75, 0x6e, 0x63, 0x74, 0x69, 0x6f, 0x6e, 0x61, 0x6c, 0x5f, 0x31,
  0x2f, 0x62, 0x61, 0x74, 0x63, 0x68, 0x5f, 0x6e, 0x6f, 0x72, 0x6d, 0x61,
  0x6c, 0x69, 0x7a, 0x61, 0x74, 0x69, 0x6f, 0x6e, 0x5f, 0x31, 0x5f, 0x32,
  0x2f, 0x62, 0x61, 0x74, 0x63, 0x68, 0x6e, 0x6f, 0x72, 0x6d, 0x2f, 0x6d,
  0x75, 0x6c, 0x3b, 0x66, 0x75, 0x6e, 0x63, 0x74, 0x69, 0x6f, 0x6e, 0x61,
  0x6c, 0x5f, 0x31, 0x2f, 0x62, 0x61, 0x74, 0x63, 0x68, 0x5f, 0x6e, 0x6f,
  0x72, 0x6d, 0x61, 0x6c, 0x69, 0x7a, 0x61, 0x74, 0x69, 0x6f, 0x6e, 0x5f,
  0x31, 0x5f, 0x32, 0x2f, 0x62, 0x61, 0x74, 0x63, 0x68, 0x6e, 0x6f, 0x72,
  0x6d, 0x2f, 0x73, 0x75, 0x62, 0x00, 0x00, 0x00, 0x04, 0x00, 0x00, 0x00,
  0x01, 0x00, 0x00, 0x00, 0x1f, 0x00, 0x00, 0x00, 0x14, 0x00, 0x00, 0x00,
  0x20, 0x00, 0x00, 0x00, 0xfa, 0xe4, 0xff, 0xff, 0x00, 0x00, 0x00, 0x01,
  0x18, 0x00, 0x00, 0x00, 0x28, 0x00, 0x00, 0x00, 0x44, 0x00, 0x00, 0x00,
  0x0f, 0x00, 0x00, 0x00, 0x00, 0x00, 0x00, 0x09, 0xe0, 0x00, 0x00, 0x00,
  0x04, 0x00, 0x00, 0x00, 0xff, 0xff, 0xff, 0xff, 0x1f, 0x00, 0x00, 0x00,
  0x14, 0x00, 0x00, 0x00, 0x20, 0x00, 0x00, 0x00, 0xe4, 0xe4, 0xff, 0xff,
  0x08, 0x00, 0x00, 0x00, 0x10, 0x00, 0x00, 0x00, 0x01, 0x00, 0x00, 0x00,
  0x80, 0xff, 0xff, 0xff, 0xff, 0xff, 0xff, 0xff, 0x01, 0x00, 0x00, 0x00,
  0xe5, 0xb3, 0xfe, 0x3c, 0xa0, 0x00, 0x00, 0x00, 0x66, 0x75, 0x6e, 0x63,
  0x74, 0x69, 0x6f, 0x6e, 0x61, 0x6c, 0x5f, 0x31, 0x2f, 0x72, 0x65, 0x5f,
  0x6c, 0x75, 0x5f, 0x31, 0x2f, 0x52, 0x65, 0x6c, 0x75, 0x3b, 0x66, 0x75,
  0x6e, 0x63, 0x74, 0x69, 0x6f, 0x6e, 0x61, 0x6c, 0x5f, 0x31, 0x2f, 0x62,
  0x61, 0x74, 0x63, 0x68, 0x5f, 0x6e, 0x6f, 0x72, 0x6d, 0x61, 0x6c, 0x69,
  0x7a, 0x61, 0x74, 0x69, 0x6f, 0x6e, 0x5f, 0x31, 0x2f, 0x62, 0x61, 0x74,
  0x63, 0x68, 0x6e, 0x6f, 0x72, 0x6d, 0x2f, 0x61, 0x64, 0x64, 0x5f, 0x31,
  0x3b, 0x66, 0x75, 0x6e, 0x63, 0x74, 0x69, 0x6f, 0x6e, 0x61, 0x6c, 0x5f,
  0x31, 0x2f, 0x63, 0x6f, 0x6e, 0x76, 0x32, 0x64, 0x5f, 0x31, 0x2f, 0x63,
  0x6f, 0x6e, 0x76, 0x6f, 0x6c, 0x75, 0x74, 0x69, 0x6f, 0x6e, 0x3b, 0x66,
  0x75, 0x6e, 0x63, 0x74, 0x69, 0x6f, 0x6e, 0x61, 0x6c, 0x5f, 0x31, 0x2f,
  0x62, 0x61, 0x74, 0x63, 0x68, 0x5f, 0x6e, 0x6f, 0x72, 0x6d, 0x61, 0x6c,
  0x69, 0x7a, 0x61, 0x74, 0x69, 0x6f, 0x6e, 0x5f, 0x31, 0x2f, 0x62, 0x61,
  0x74, 0x63, 0x68, 0x6e, 0x6f, 0x72, 0x6d, 0x2f, 0x73, 0x75, 0x62, 0x31,
  0x00, 0x00, 0x00, 0x00, 0x04, 0x00, 0x00, 0x00, 0x01, 0x00, 0x00, 0x00,
  0x1f, 0x00, 0x00, 0x00, 0x14, 0x00, 0x00, 0x00, 0x20, 0x00, 0x00, 0x00,
  0x62, 0xe6, 0xff, 0xff, 0x00, 0x00, 0x00, 0x01, 0x14, 0x00, 0x00, 0x00,
  0xa8, 0x01, 0x00, 0x00, 0x0e, 0x00, 0x00, 0x00, 0x00, 0x00, 0x00, 0x09,
  0xb4, 0x01, 0x00, 0x00, 0xdc, 0xe5, 0xff, 0xff, 0x08, 0x00, 0x00, 0x00,
  0x0c, 0x01, 0x00, 0x00, 0x20, 0x00, 0x00, 0x00, 0x00, 0x00, 0x00, 0x00,
  0x00, 0x00, 0x00, 0x00, 0x00, 0x00, 0x00, 0x00, 0x00, 0x00, 0x00, 0x00,
  0x00, 0x00, 0x00, 0x00, 0x00, 0x00, 0x00, 0x00, 0x00, 0x00, 0x00, 0x00,
  0x00, 0x00, 0x00, 0x00, 0x00, 0x00, 0x00, 0x00, 0x00, 0x00, 0x00, 0x00,
  0x00, 0x00, 0x00, 0x00, 0x00, 0x00, 0x00, 0x00, 0x00, 0x00, 0x00, 0x00,
  0x00, 0x00, 0x00, 0x00, 0x00, 0x00, 0x00, 0x00, 0x00, 0x00, 0x00, 0x00,
  0x00, 0x00, 0x00, 0x00, 0x00, 0x00, 0x00, 0x00, 0x00, 0x00, 0x00, 0x00,
  0x00, 0x00, 0x00, 0x00, 0x00, 0x00, 0x00, 0x00, 0x00, 0x00, 0x00, 0x00,
  0x00, 0x00, 0x00, 0x00, 0x00, 0x00, 0x00, 0x00, 0x00, 0x00, 0x00, 0x00,
  0x00, 0x00, 0x00, 0x00, 0x00, 0x00, 0x00, 0x00, 0x00, 0x00, 0x00, 0x00,
  0x00, 0x00, 0x00, 0x00, 0x00, 0x00, 0x00, 0x00, 0x00, 0x00, 0x00, 0x00,
  0x00, 0x00, 0x00, 0x00, 0x00, 0x00, 0x00, 0x00, 0x00, 0x00, 0x00, 0x00,
  0x00, 0x00, 0x00, 0x00, 0x00, 0x00, 0x00, 0x00, 0x00, 0x00, 0x00, 0x00,
  0x00, 0x00, 0x00, 0x00, 0x00, 0x00, 0x00, 0x00, 0x00, 0x00, 0x00, 0x00,
  0x00, 0x00, 0x00, 0x00, 0x00, 0x00, 0x00, 0x00, 0x00, 0x00, 0x00, 0x00,
  0x00, 0x00, 0x00, 0x00, 0x00, 0x00, 0x00, 0x00, 0x00, 0x00, 0x00, 0x00,
  0x00, 0x00, 0x00, 0x00, 0x00, 0x00, 0x00, 0x00, 0x00, 0x00, 0x00, 0x00,
  0x00, 0x00, 0x00, 0x00, 0x00, 0x00, 0x00, 0x00, 0x00, 0x00, 0x00, 0x00,
  0x00, 0x00, 0x00, 0x00, 0x00, 0x00, 0x00, 0x00, 0x00, 0x00, 0x00, 0x00,
  0x00, 0x00, 0x00, 0x00, 0x00, 0x00, 0x00, 0x00, 0x00, 0x00, 0x00, 0x00,
  0x00, 0x00, 0x00, 0x00, 0x00, 0x00, 0x00, 0x00, 0x00, 0x00, 0x00, 0x00,
  0x00, 0x00, 0x00, 0x00, 0x00, 0x00, 0x00, 0x00, 0x00, 0x00, 0x00, 0x00,
  0x00, 0x00, 0x00, 0x00, 0x20, 0x00, 0x00, 0x00, 0xc6, 0xa7, 0x79, 0x3a,
  0x5e, 0xe3, 0x75, 0x3a, 0x0f, 0xc7, 0x92, 0x3a, 0x9a, 0x89, 0xc1, 0x3a,
  0x5b, 0x2c, 0x9e, 0x3a, 0x02, 0xf3, 0x12, 0x3a, 0xf2, 0x88, 0x9d, 0x3a,
  0x33, 0x81, 0xb1, 0x3a, 0x22, 0x3f, 0x90, 0x3a, 0x61, 0x45, 0xbf, 0x3a,
  0xc7, 0xea, 0x43, 0x3a, 0x70, 0x98, 0xcf, 0x3a, 0x33, 0xf0, 0x48, 0x3a,
  0xf7, 0x40, 0x07, 0x3a, 0xd1, 0x29, 0xc6, 0x3a, 0x84, 0x70, 0xa6, 0x3a,
  0xde, 0xe6, 0x8b, 0x3a, 0xdb, 0x8e, 0x40, 0x3a, 0x72, 0xcb, 0x90, 0x3a,
  0xd7, 0x36, 0xdc, 0x3a, 0x88, 0x00, 0x53, 0x3a, 0xb5, 0x80, 0x1d, 0x3a,
  0x55, 0x7e, 0x23, 0x3a, 0x4b, 0x11, 0xc2, 0x3a, 0x55, 0xcc, 0xa2, 0x3a,
  0xcc, 0x62, 0x2f, 0x3a, 0xd8, 0x6a, 0x08, 0x3a, 0xb3, 0x72, 0x8e, 0x3a,
  0xd5, 0xff, 0x02, 0x3b, 0x1a, 0x23, 0x8b, 0x3a, 0x4c, 0xc1, 0x21, 0x3a,
  0x7b, 0x94, 0x8e, 0x3a, 0x13, 0x00, 0x00, 0x00, 0x74, 0x66, 0x6c, 0x2e,
  0x70, 0x73, 0x65, 0x75, 0x64, 0x6f, 0x5f, 0x71, 0x63, 0x6f, 0x6e, 0x73,
  0x74, 0x31, 0x31, 0x00, 0x04, 0x00, 0x00, 0x00, 0x20, 0x00, 0x00, 0x00,
  0x03, 0x00, 0x00, 0x00, 0x03, 0x00, 0x00, 0x00, 0x01, 0x00, 0x00, 0x00,
  0x42, 0xe8, 0xff, 0xff, 0x00, 0x00, 0x00, 0x01, 0x14, 0x00, 0x00, 0x00,
  0xa8, 0x01, 0x00, 0x00, 0x0d, 0x00, 0x00, 0x00, 0x00, 0x00, 0x00, 0x02,
  0xb4, 0x01, 0x00, 0x00, 0xbc, 0xe7, 0xff, 0xff, 0x08, 0x00, 0x00, 0x00,
  0x0c, 0x01, 0x00, 0x00, 0x20, 0x00, 0x00, 0x00, 0x00, 0x00, 0x00, 0x00,
  0x00, 0x00, 0x00, 0x00, 0x00, 0x00, 0x00, 0x00, 0x00, 0x00, 0x00, 0x00,
  0x00, 0x00, 0x00, 0x00, 0x00, 0x00, 0x00, 0x00, 0x00, 0x00, 0x00, 0x00,
  0x00, 0x00, 0x00, 0x00, 0x00, 0x00, 0x00, 0x00, 0x00, 0x00, 0x00, 0x00,
  0x00, 0x00, 0x00, 0x00, 0x00, 0x00, 0x00, 0x00, 0x00, 0x00, 0x00, 0x00,
  0x00, 0x00, 0x00, 0x00, 0x00, 0x00, 0x00, 0x00, 0x00, 0x00, 0x00, 0x00,
  0x00, 0x00, 0x00, 0x00, 0x00, 0x00, 0x00, 0x00, 0x00, 0x00, 0x00, 0x00,
  0x00, 0x00, 0x00, 0x00, 0x00, 0x00, 0x00, 0x00, 0x00, 0x00, 0x00, 0x00,
  0x00, 0x00, 0x00, 0x00, 0x00, 0x00, 0x00, 0x00, 0x00, 0x00, 0x00, 0x00,
  0x00, 0x00, 0x00, 0x00, 0x00, 0x00, 0x00, 0x00, 0x00, 0x00, 0x00, 0x00,
  0x00, 0x00, 0x00, 0x00, 0x00, 0x00, 0x00, 0x00, 0x00, 0x00, 0x00, 0x00,
  0x00, 0x00, 0x00, 0x00, 0x00, 0x00, 0x00, 0x00, 0x00, 0x00, 0x00, 0x00,
  0x00, 0x00, 0x00, 0x00, 0x00, 0x00, 0x00, 0x00, 0x00, 0x00, 0x00, 0x00,
  0x00, 0x00, 0x00, 0x00, 0x00, 0x00, 0x00, 0x00, 0x00, 0x00, 0x00, 0x00,
  0x00, 0x00, 0x00, 0x00, 0x00, 0x00, 0x00, 0x00, 0x00, 0x00, 0x00, 0x00,
  0x00, 0x00, 0x00, 0x00, 0x00, 0x00, 0x00, 0x00, 0x00, 0x00, 0x00, 0x00,
  0x00, 0x00, 0x00, 0x00, 0x00, 0x00, 0x00, 0x00, 0x00, 0x00, 0x00, 0x00,
  0x00, 0x00, 0x00, 0x00, 0x00, 0x00, 0x00, 0x00, 0x00, 0x00, 0x00, 0x00,
  0x00, 0x00, 0x00, 0x00, 0x00, 0x00, 0x00, 0x00, 0x00, 0x00, 0x00, 0x00,
  0x00, 0x00, 0x00, 0x00, 0x00, 0x00, 0x00, 0x00, 0x00, 0x00, 0x00, 0x00,
  0x00, 0x00, 0x00, 0x00, 0x00, 0x00, 0x00, 0x00, 0x00, 0x00, 0x00, 0x00,
  0x00, 0x00, 0x00, 0x00, 0x00, 0x00, 0x00, 0x00, 0x00, 0x00, 0x00, 0x00,
  0x00, 0x00, 0x00, 0x00, 0x20, 0x00, 0x00, 0x00, 0x2e, 0x80, 0xbc, 0x38,
  0x03, 0xa8, 0xb9, 0x38, 0x9f, 0xa5, 0xdd, 0x38, 0x18, 0x21, 0x12, 0x39,
  0xff, 0xda, 0xee, 0x38, 0xfd, 0xe7, 0x5d, 0x38, 0x3b, 0xe4, 0xed, 0x38,
  0x17, 0x06, 0x06, 0x39, 0x32, 0xd3, 0xd9, 0x38, 0x00, 0x6b, 0x10, 0x39,
  0x0c, 0xed, 0x93, 0x38, 0x5f, 0xbe, 0x1c, 0x39, 0x99, 0xb7, 0x97, 0x38,
  0xb9, 0x3e, 0x4c, 0x38, 0x3a, 0x9f, 0x15, 0x39, 0x95, 0x56, 0xfb, 0x38,
  0x94, 0x43, 0xd3, 0x38, 0xc5, 0x63, 0x91, 0x38, 0x15, 0xa7, 0xda, 0x38,
  0x78, 0x45, 0x26, 0x39, 0xd7, 0x50, 0x9f, 0x38, 0xca, 0xd7, 0x6d, 0x38,
  0xb3, 0xe3, 0x76, 0x38, 0x8c, 0x87, 0x12, 0x39, 0xe7, 0xd6, 0xf5, 0x38,
  0x8e, 0x6c, 0x84, 0x38, 0x8c, 0x00, 0x4e, 0x38, 0xe7, 0x1b, 0xd7, 0x38,
  0x09, 0xd2, 0x45, 0x39, 0xf5, 0x1b, 0xd2, 0x38, 0xa8, 0x43, 0x74, 0x38,
  0xea, 0x4e, 0xd7, 0x38, 0x13, 0x00, 0x00, 0x00, 0x74, 0x66, 0x6c, 0x2e,
  0x70, 0x73, 0x65, 0x75, 0x64, 0x6f, 0x5f, 0x71, 0x63, 0x6f, 0x6e, 0x73,
  0x74, 0x31, 0x30, 0x00, 0x01, 0x00, 0x00, 0x00, 0x20, 0x00, 0x00, 0x00,
  0x16, 0xea, 0xff, 0xff, 0x00, 0x00, 0x00, 0x01, 0x14, 0x00, 0x00, 0x00,
  0xac, 0x01, 0x00, 0x00, 0x0c, 0x00, 0x00, 0x00, 0x00, 0x00, 0x00, 0x09,
  0xb8, 0x01, 0x00, 0x00, 0x02, 0xf7, 0xff, 0xff, 0x03, 0x00, 0x00, 0x00,
  0x08, 0x00, 0x00, 0x00, 0x0c, 0x01, 0x00, 0x00, 0x20, 0x00, 0x00, 0x00,
  0x00, 0x00, 0x00, 0x00, 0x00, 0x00, 0x00, 0x00, 0x00, 0x00, 0x00, 0x00,
  0x00, 0x00, 0x00, 0x00, 0x00, 0x00, 0x00, 0x00, 0x00, 0x00, 0x00, 0x00,
  0x00, 0x00, 0x00, 0x00, 0x00, 0x00, 0x00, 0x00, 0x00, 0x00, 0x00, 0x00,
  0x00, 0x00, 0x00, 0x00, 0x00, 0x00, 0x00, 0x00, 0x00, 0x00, 0x00, 0x00,
  0x00, 0x00, 0x00, 0x00, 0x00, 0x00, 0x00, 0x00, 0x00, 0x00, 0x00, 0x00,
  0x00, 0x00, 0x00, 0x00, 0x00, 0x00, 0x00, 0x00, 0x00, 0x00, 0x00, 0x00,
  0x00, 0x00, 0x00, 0x00, 0x00, 0x00, 0x00, 0x00, 0x00, 0x00, 0x00, 0x00,
  0x00, 0x00, 0x00, 0x00, 0x00, 0x00, 0x00, 0x00, 0x00, 0x00, 0x00, 0x00,
  0x00, 0x00, 0x00, 0x00, 0x00, 0x00, 0x00, 0x00, 0x00, 0x00, 0x00, 0x00,
  0x00, 0x00, 0x00, 0x00, 0x00, 0x00, 0x00, 0x00, 0x00, 0x00, 0x00, 0x00,
  0x00, 0x00, 0x00, 0x00, 0x00, 0x00, 0x00, 0x00, 0x00, 0x00, 0x00, 0x00,
  0x00, 0x00, 0x00, 0x00, 0x00, 0x00, 0x00, 0x00, 0x00, 0x00, 0x00, 0x00,
  0x00, 0x00, 0x00, 0x00, 0x00, 0x00, 0x00, 0x00, 0x00, 0x00, 0x00, 0x00,
  0x00, 0x00, 0x00, 0x00, 0x00, 0x00, 0x00, 0x00, 0x00, 0x00, 0x00, 0x00,
  0x00, 0x00, 0x00, 0x00, 0x00, 0x00, 0x00, 0x00, 0x00, 0x00, 0x00, 0x00,
  0x00, 0x00, 0x00, 0x00, 0x00, 0x00, 0x00, 0x00, 0x00, 0x00, 0x00, 0x00,
  0x00, 0x00, 0x00, 0x00, 0x00, 0x00, 0x00, 0x00, 0x00, 0x00, 0x00, 0x00,
  0x00, 0x00, 0x00, 0x00, 0x00, 0x00, 0x00, 0x00, 0x00, 0x00, 0x00, 0x00,
  0x00, 0x00, 0x00, 0x00, 0x00, 0x00, 0x00, 0x00, 0x00, 0x00, 0x00, 0x00,
  0x00, 0x00, 0x00, 0x00, 0x00, 0x00, 0x00, 0x00, 0x00, 0x00, 0x00, 0x00,
  0x00, 0x00, 0x00, 0x00, 0x00, 0x00, 0x00, 0x00, 0x00, 0x00, 0x00, 0x00,
  0x00, 0x00, 0x00, 0x00, 0x00, 0x00, 0x00, 0x00, 0x20, 0x00, 0x00, 0x00,
  0xc3, 0x96, 0x20, 0x3c, 0x57, 0x4a, 0x4f, 0x3c, 0xe6, 0xed, 0x64, 0x3c,
  0x58, 0xa1, 0x2a, 0x3c, 0x2d, 0x7e, 0x2e, 0x3c, 0xd1, 0xd4, 0x4c, 0x3c,
  0x05, 0x72, 0xb7, 0x3b, 0xe3, 0x6a, 0x1f, 0x3c, 0x72, 0xa3, 0x0e, 0x3c,
  0x3c, 0x36, 0xa2, 0x3b, 0x47, 0x87, 0x7e, 0x3c, 0xfa, 0xba, 0xb8, 0x3b,
  0xc8, 0x97, 0x57, 0x3c, 0xec, 0xc7, 0xbd, 0x3b, 0x3e, 0x5f, 0x6c, 0x3c,
  0x66, 0x39, 0x30, 0x3c, 0x9b, 0xa8, 0xf4, 0x3b, 0x6b, 0x20, 0x49, 0x3c,
  0xa5, 0xd3, 0x46, 0x3c, 0x1f, 0xed, 0x62, 0x3c, 0x91, 0x64, 0xce, 0x3c,
  0x9f, 0x92, 0x13, 0x3c, 0xaf, 0xe4, 0x02, 0x3c, 0x6e, 0xb5, 0xcf, 0x3b,
  0x26, 0x62, 0xb9, 0x3c, 0x2c, 0xaa, 0x90, 0x3b, 0xd4, 0x31, 0x89, 0x3b,
  0x10, 0x2e, 0xe4, 0x3c, 0x00, 0x2c, 0x0a, 0x3c, 0x26, 0x06, 0x45, 0x3c,
  0xd4, 0x9c, 0xcf, 0x3c, 0x21, 0x80, 0x53, 0x3c, 0x12, 0x00, 0x00, 0x00,
  0x74, 0x66, 0x6c, 0x2e, 0x70, 0x73, 0x65, 0x75, 0x64, 0x6f, 0x5f, 0x71,
  0x63, 0x6f, 0x6e, 0x73, 0x74, 0x39, 0x00, 0x00, 0x04, 0x00, 0x00, 0x00,
  0x01, 0x00, 0x00, 0x00, 0x03, 0x00, 0x00, 0x00, 0x03, 0x00, 0x00, 0x00,
  0x20, 0x00, 0x00, 0x00, 0xfa, 0xeb, 0xff, 0xff, 0x00, 0x00, 0x00, 0x01,
  0x14, 0x00, 0x00, 0x00, 0xa4, 0x01, 0x00, 0x00, 0x0b, 0x00, 0x00, 0x00,
  0x00, 0x00, 0x00, 0x02, 0xb0, 0x01, 0x00, 0x00, 0x74, 0xeb, 0xff, 0xff,
  0x08, 0x00, 0x00, 0x00, 0x08, 0x01, 0x00, 0x00, 0x20, 0x00, 0x00, 0x00,
  0x00, 0x00, 0x00, 0x00, 0x00, 0x00, 0x00, 0x00, 0x00, 0x00, 0x00, 0x00,
  0x00, 0x00, 0x00, 0x00, 0x00, 0x00, 0x00, 0x00, 0x00, 0x00, 0x00, 0x00,
  0x00, 0x00, 0x00, 0x00, 0x00, 0x00, 0x00, 0x00, 0x00, 0x00, 0x00, 0x00,
  0x00, 0x00, 0x00, 0x00, 0x00, 0x00, 0x00, 0x00, 0x00, 0x00, 0x00, 0x00,
  0x00, 0x00, 0x00, 0x00, 0x00, 0x00, 0x00, 0x00, 0x00, 0x00, 0x00, 0x00,
  0x00, 0x00, 0x00, 0x00, 0x00, 0x00, 0x00, 0x00, 0x00, 0x00, 0x00, 0x00,
  0x00, 0x00, 0x00, 0x00, 0x00, 0x00, 0x00, 0x00, 0x00, 0x00, 0x00, 0x00,
  0x00, 0x00, 0x00, 0x00, 0x00, 0x00, 0x00, 0x00, 0x00, 0x00, 0x00, 0x00,
  0x00, 0x00, 0x00, 0x00, 0x00, 0x00, 0x00, 0x00, 0x00, 0x00, 0x00, 0x00,
  0x00, 0x00, 0x00, 0x00, 0x00, 0x00, 0x00, 0x00, 0x00, 0x00, 0x00, 0x00,
  0x00, 0x00, 0x00, 0x00, 0x00, 0x00, 0x00, 0x00, 0x00, 0x00, 0x00, 0x00,
  0x00, 0x00, 0x00, 0x00, 0x00, 0x00, 0x00, 0x00, 0x00, 0x00, 0x00, 0x00,
  0x00, 0x00, 0x00, 0x00, 0x00, 0x00, 0x00, 0x00, 0x00, 0x00, 0x00, 0x00,
  0x00, 0x00, 0x00, 0x00, 0x00, 0x00, 0x00, 0x00, 0x00, 0x00, 0x00, 0x00,
  0x00, 0x00, 0x00, 0x00, 0x00, 0x00, 0x00, 0x00, 0x00, 0x00, 0x00, 0x00,
  0x00, 0x00, 0x00, 0x00, 0x00, 0x00, 0x00, 0x00, 0x00, 0x00, 0x00, 0x00,
  0x00, 0x00, 0x00, 0x00, 0x00, 0x00, 0x00, 0x00, 0x00, 0x00, 0x00, 0x00,
  0x00, 0x00, 0x00, 0x00, 0x00, 0x00, 0x00, 0x00, 0x00, 0x00, 0x00, 0x00,
  0x00, 0x00, 0x00, 0x00, 0x00, 0x00, 0x00, 0x00, 0x00, 0x00, 0x00, 0x00,
  0x00, 0x00, 0x00, 0x00, 0x00, 0x00, 0x00, 0x00, 0x00, 0x00, 0x00, 0x00,
  0x00, 0x00, 0x00, 0x00, 0x00, 0x00, 0x00, 0x00, 0x00, 0x00, 0x00, 0x00,
  0x00, 0x00, 0x00, 0x00, 0x20, 0x00, 0x00, 0x00, 0x6f, 0xc6, 0x9f, 0x39,
  0x6d, 0x3d, 0xce, 0x39, 0xe9, 0xc4, 0xe3, 0x39, 0xfd, 0xc3, 0xa9, 0x39,
  0xcf, 0x9b, 0xad, 0x39, 0x17, 0xcb, 0xcb, 0x39, 0x0a, 0x84, 0x36, 0x39,
  0x14, 0x9c, 0x9e, 0x39, 0x67, 0xea, 0x8d, 0x39, 0xcd, 0x63, 0x21, 0x39,
  0x15, 0x3d, 0xfd, 0x39, 0x54, 0xcb, 0x37, 0x39, 0x18, 0x80, 0xd6, 0x39,
  0xb9, 0xd1, 0x3c, 0x39, 0x9a, 0x2c, 0xeb, 0x39, 0xc9, 0x54, 0xaf, 0x39,
  0x37, 0x6b, 0x73, 0x39, 0x80, 0x1b, 0xc8, 0x39, 0xb6, 0xd1, 0xc5, 0x39,
  0xbc, 0xc6, 0xe1, 0x39, 0xd1, 0x58, 0x4d, 0x3a, 0x2d, 0xd3, 0x92, 0x39,
  0xe1, 0x3a, 0x82, 0x39, 0xf9, 0xa7, 0x4e, 0x39, 0xa7, 0x71, 0x38, 0x3a,
  0x80, 0xee, 0x0f, 0x39, 0xd9, 0x7f, 0x08, 0x39, 0x0c, 0x06, 0x63, 0x3a,
  0xc0, 0x78, 0x89, 0x39, 0x8d, 0x06, 0xc4, 0x39, 0x7f, 0x8f, 0x4e, 0x3a,
  0xc1, 0x6d, 0xd2, 0x39, 0x12, 0x00, 0x00, 0x00, 0x74, 0x66, 0x6c, 0x2e,
  0x70, 0x73, 0x65, 0x75, 0x64, 0x6f, 0x5f, 0x71, 0x63, 0x6f, 0x6e, 0x73,
  0x74, 0x38, 0x00, 0x00, 0x01, 0x00, 0x00, 0x00, 0x20, 0x00, 0x00, 0x00,
  0xca, 0xed, 0xff, 0xff, 0x00, 0x00, 0x00, 0x01, 0x14, 0x00, 0x00, 0x00,
  0x68, 0x02, 0x00, 0x00, 0x0a, 0x00, 0x00, 0x00, 0x00, 0x00, 0x00, 0x09,
  0x74, 0x02, 0x00, 0x00, 0x44, 0xed, 0xff, 0xff, 0x08, 0x00, 0x00, 0x00,
  0x8c, 0x01, 0x00, 0x00, 0x30, 0x00, 0x00, 0x00, 0x00, 0x00, 0x00, 0x00,
  0x00, 0x00, 0x00, 0x00, 0x00, 0x00, 0x00, 0x00, 0x00, 0x00, 0x00, 0x00,
  0x00, 0x00, 0x00, 0x00, 0x00, 0x00, 0x00, 0x00, 0x00, 0x00, 0x00, 0x00,
  0x00, 0x00, 0x00, 0x00, 0x00, 0x00, 0x00, 0x00, 0x00, 0x00, 0x00, 0x00,
  0x00, 0x00, 0x00, 0x00, 0x00, 0x00, 0x00, 0x00, 0x00, 0x00, 0x00, 0x00,
  0x00, 0x00, 0x00, 0x00, 0x00, 0x00, 0x00, 0x00, 0x00, 0x00, 0x00, 0x00,
  0x00, 0x00, 0x00, 0x00, 0x00, 0x00, 0x00, 0x00, 0x00, 0x00, 0x00, 0x00,
  0x00, 0x00, 0x00, 0x00, 0x00, 0x00, 0x00, 0x00, 0x00, 0x00, 0x00, 0x00,
  0x00, 0x00, 0x00, 0x00, 0x00, 0x00, 0x00, 0x00, 0x00, 0x00, 0x00, 0x00,
  0x00, 0x00, 0x00, 0x00, 0x00, 0x00, 0x00, 0x00, 0x00, 0x00, 0x00, 0x00,
  0x00, 0x00, 0x00, 0x00, 0x00, 0x00, 0x00, 0x00, 0x00, 0x00, 0x00, 0x00,
  0x00, 0x00, 0x00, 0x00, 0x00, 0x00, 0x00, 0x00, 0x00, 0x00, 0x00, 0x00,
  0x00, 0x00, 0x00, 0x00, 0x00, 0x00, 0x00, 0x00, 0x00, 0x00, 0x00, 0x00,
  0x00, 0x00, 0x00, 0x00, 0x00, 0x00, 0x00, 0x00, 0x00, 0x00, 0x00, 0x00,
  0x00, 0x00, 0x00, 0x00, 0x00, 0x00, 0x00, 0x00, 0x00, 0x00, 0x00, 0x00,
  0x00, 0x00, 0x00, 0x00, 0x00, 0x00, 0x00, 0x00, 0x00, 0x00, 0x00, 0x00,
  0x00, 0x00, 0x00, 0x00, 0x00, 0x00, 0x00, 0x00, 0x00, 0x00, 0x00, 0x00,
  0x00, 0x00, 0x00, 0x00, 0x00, 0x00, 0x00, 0x00, 0x00, 0x00, 0x00, 0x00,
  0x00, 0x00, 0x00, 0x00, 0x00, 0x00, 0x00, 0x00, 0x00, 0x00, 0x00, 0x00,
  0x00, 0x00, 0x00, 0x00, 0x00, 0x00, 0x00, 0x00, 0x00, 0x00, 0x00, 0x00,
  0x00, 0x00, 0x00, 0x00, 0x00, 0x00, 0x00, 0x00, 0x00, 0x00, 0x00, 0x00,
  0x00, 0x00, 0x00, 0x00, 0x00, 0x00, 0x00, 0x00, 0x00, 0x00, 0x00, 0x00,
  0x00, 0x00, 0x00, 0x00, 0x00, 0x00, 0x00, 0x00, 0x00, 0x00, 0x00, 0x00,
  0x00, 0x00, 0x00, 0x00, 0x00, 0x00, 0x00, 0x00, 0x00, 0x00, 0x00, 0x00,
  0x00, 0x00, 0x00, 0x00, 0x00, 0x00, 0x00, 0x00, 0x00, 0x00, 0x00, 0x00,
  0x00, 0x00, 0x00, 0x00, 0x00, 0x00, 0x00, 0x00, 0x00, 0x00, 0x00, 0x00,
  0x00, 0x00, 0x00, 0x00, 0x00, 0x00, 0x00, 0x00, 0x00, 0x00, 0x00, 0x00,
  0x00, 0x00, 0x00, 0x00, 0x00, 0x00, 0x00, 0x00, 0x00, 0x00, 0x00, 0x00,
  0x00, 0x00, 0x00, 0x00, 0x00, 0x00, 0x00, 0x00, 0x00, 0x00, 0x00, 0x00,
  0x00, 0x00, 0x00, 0x00, 0x00, 0x00, 0x00, 0x00, 0x00, 0x00, 0x00, 0x00,
  0x00, 0x00, 0x00, 0x00, 0x00, 0x00, 0x00, 0x00, 0x00, 0x00, 0x00, 0x00,
  0x00, 0x00, 0x00, 0x00, 0x00, 0x00, 0x00, 0x00, 0x00, 0x00, 0x00, 0x00,
  0x00, 0x00, 0x00, 0x00, 0x00, 0x00, 0x00, 0x00, 0x00, 0x00, 0x00, 0x00,
  0x30, 0x00, 0x00, 0x00, 0xe6, 0x0d, 0xbe, 0x3b, 0x57, 0x98, 0xa3, 0x3b,
  0x1e, 0x3a, 0x90, 0x3b, 0x83, 0xcd, 0x5f, 0x3b, 0x2f, 0x39, 0x51, 0x3b,
  0x9d, 0xe6, 0xf4, 0x3b, 0x2a, 0x30, 0x7c, 0x3b, 0xd9, 0xb6, 0x1a, 0x3b,
  0x16, 0x84, 0x79, 0x3b, 0xd2, 0xd8, 0x76, 0x3b, 0xbf, 0xaf, 0x8f, 0x3b,
  0x02, 0x1e, 0x8a, 0x3b, 0x15, 0x86, 0x81, 0x3b, 0xe5, 0xbf, 0xbb, 0x3b,
  0x25, 0xa3, 0x67, 0x3b, 0x9b, 0x74, 0xc5, 0x3b, 0x0d, 0x9b, 0xbd, 0x3b,
  0xb1, 0x20, 0x76, 0x3b, 0x73, 0x27, 0xce, 0x3b, 0x46, 0x62, 0x39, 0x3b,
  0xf0, 0x44, 0x3b, 0x3b, 0xd1, 0x23, 0xaa, 0x3b, 0x2c, 0xf1, 0xe6, 0x3b,
  0xb5, 0x37, 0xec, 0x3b, 0x95, 0x9d, 0xb4, 0x3b, 0xda, 0x89, 0x9b, 0x3b,
  0x24, 0x15, 0x85, 0x3b, 0x75, 0x74, 0x04, 0x3c, 0x1f, 0x5c, 0x84, 0x3b,
  0xbe, 0x40, 0xba, 0x3b, 0x59, 0xcc, 0xf3, 0x3b, 0xcb, 0x73, 0x7e, 0x3b,
  0x0f, 0xc8, 0x9a, 0x3b, 0x1c, 0x84, 0xa4, 0x3b, 0x0b, 0x9c, 0x64, 0x3b,
  0x6e, 0xa7, 0xa3, 0x3b, 0x8b, 0x46, 0xd4, 0x3b, 0xc6, 0x60, 0xa1, 0x3b,
  0x35, 0x41, 0x0d, 0x3b, 0xfb, 0x3c, 0x7d, 0x3b, 0x07, 0xa5, 0x60, 0x3b,
  0x39, 0xbb, 0xab, 0x3b, 0xaf, 0x27, 0x2c, 0x3b, 0x15, 0x3d, 0x8c, 0x3b,
  0x16, 0xb7, 0xc3, 0x3b, 0x97, 0x76, 0x96, 0x3b, 0x20, 0xfc, 0x86, 0x3b,
  0x15, 0x17, 0xb9, 0x3b, 0x12, 0x00, 0x00, 0x00, 0x74, 0x66, 0x6c, 0x2e,
  0x70, 0x73, 0x65, 0x75, 0x64, 0x6f, 0x5f, 0x71, 0x63, 0x6f, 0x6e, 0x73,
  0x74, 0x37, 0x00, 0x00, 0x04, 0x00, 0x00, 0x00, 0x30, 0x00, 0x00, 0x00,
  0x01, 0x00, 0x00, 0x00, 0x01, 0x00, 0x00, 0x00, 0x20, 0x00, 0x00, 0x00,
  0x6a, 0xf0, 0xff, 0xff, 0x00, 0x00, 0x00, 0x01, 0x14, 0x00, 0x00, 0x00,
  0x64, 0x02, 0x00, 0x00, 0x09, 0x00, 0x00, 0x00, 0x00, 0x00, 0x00, 0x02,
  0x70, 0x02, 0x00, 0x00, 0xe4, 0xef, 0xff, 0xff, 0x08, 0x00, 0x00, 0x00,
  0x88, 0x01, 0x00, 0x00, 0x30, 0x00, 0x00, 0x00, 0x00, 0x00, 0x00, 0x00,
  0x00, 0x00, 0x00, 0x00, 0x00, 0x00, 0x00, 0x00, 0x00, 0x00, 0x00, 0x00,
  0x00, 0x00, 0x00, 0x00, 0x00, 0x00, 0x00, 0x00, 0x00, 0x00, 0x00, 0x00,
  0x00, 0x00, 0x00, 0x00, 0x00, 0x00, 0x00, 0x00, 0x00, 0x00, 0x00, 0x00,
  0x00, 0x00, 0x00, 0x00, 0x00, 0x00, 0x00, 0x00, 0x00, 0x00, 0x00, 0x00,
  0x00, 0x00, 0x00, 0x00, 0x00, 0x00, 0x00, 0x00, 0x00, 0x00, 0x00, 0x00,
  0x00, 0x00, 0x00, 0x00, 0x00, 0x00, 0x00, 0x00, 0x00, 0x00, 0x00, 0x00,
  0x00, 0x00, 0x00, 0x00, 0x00, 0x00, 0x00, 0x00, 0x00, 0x00, 0x00, 0x00,
  0x00, 0x00, 0x00, 0x00, 0x00, 0x00, 0x00, 0x00, 0x00, 0x00, 0x00, 0x00,
  0x00, 0x00, 0x00, 0x00, 0x00, 0x00, 0x00, 0x00, 0x00, 0x00, 0x00, 0x00,
  0x00, 0x00, 0x00, 0x00, 0x00, 0x00, 0x00, 0x00, 0x00, 0x00, 0x00, 0x00,
  0x00, 0x00, 0x00, 0x00, 0x00, 0x00, 0x00, 0x00, 0x00, 0x00, 0x00, 0x00,
  0x00, 0x00, 0x00, 0x00, 0x00, 0x00, 0x00, 0x00, 0x00, 0x00, 0x00, 0x00,
  0x00, 0x00, 0x00, 0x00, 0x00, 0x00, 0x00, 0x00, 0x00, 0x00, 0x00, 0x00,
  0x00, 0x00, 0x00, 0x00, 0x00, 0x00, 0x00, 0x00, 0x00, 0x00, 0x00, 0x00,
  0x00, 0x00, 0x00, 0x00, 0x00, 0x00, 0x00, 0x00, 0x00, 0x00, 0x00, 0x00,
  0x00, 0x00, 0x00, 0x00, 0x00, 0x00, 0x00, 0x00, 0x00, 0x00, 0x00, 0x00,
  0x00, 0x00, 0x00, 0x00, 0x00, 0x00, 0x00, 0x00, 0x00, 0x00, 0x00, 0x00,
  0x00, 0x00, 0x00, 0x00, 0x00, 0x00, 0x00, 0x00, 0x00, 0x00, 0x00, 0x00,
  0x00, 0x00, 0x00, 0x00, 0x00, 0x00, 0x00, 0x00, 0x00, 0x00, 0x00, 0x00,
  0x00, 0x00, 0x00, 0x00, 0x00, 0x00, 0x00, 0x00, 0x00, 0x00, 0x00, 0x00,
  0x00, 0x00, 0x00, 0x00, 0x00, 0x00, 0x00, 0x00, 0x00, 0x00, 0x00, 0x00,
  0x00, 0x00, 0x00, 0x00, 0x00, 0x00, 0x00, 0x00, 0x00, 0x00, 0x00, 0x00,
  0x00, 0x00, 0x00, 0x00, 0x00, 0x00, 0x00, 0x00, 0x00, 0x00, 0x00, 0x00,
  0x00, 0x00, 0x00, 0x00, 0x00, 0x00, 0x00, 0x00, 0x00, 0x00, 0x00, 0x00,
  0x00, 0x00, 0x00, 0x00, 0x00, 0x00, 0x00, 0x00, 0x00, 0x00, 0x00, 0x00,
  0x00, 0x00, 0x00, 0x00, 0x00, 0x00, 0x00, 0x00, 0x00, 0x00, 0x00, 0x00,
  0x00, 0x00, 0x00, 0x00, 0x00, 0x00, 0x00, 0x00, 0x00, 0x00, 0x00, 0x00,
  0x00, 0x00, 0x00, 0x00, 0x00, 0x00, 0x00, 0x00, 0x00, 0x00, 0x00, 0x00,
  0x00, 0x00, 0x00, 0x00, 0x00, 0x00, 0x00, 0x00, 0x00, 0x00, 0x00, 0x00,
  0x00, 0x00, 0x00, 0x00, 0x00, 0x00, 0x00, 0x00, 0x00, 0x00, 0x00, 0x00,
  0x00, 0x00, 0x00, 0x00, 0x00, 0x00, 0x00, 0x00, 0x00, 0x00, 0x00, 0x00,
  0x00, 0x00, 0x00, 0x00, 0x00, 0x00, 0x00, 0x00, 0x30, 0x00, 0x00, 0x00,
  0x5d, 0x43, 0xae, 0x39, 0x9b, 0x00, 0x96, 0x39, 0x59, 0x3e, 0x84, 0x39,
  0x22, 0x35, 0x4d, 0x39, 0xea, 0xd6, 0x3f, 0x39, 0x78, 0x8d, 0xe0, 0x39,
  0x04, 0x3c, 0x67, 0x39, 0x03, 0xdc, 0x0d, 0x39, 0xc7, 0xc8, 0x64, 0x39,
  0x48, 0x56, 0x62, 0x39, 0x79, 0xbf, 0x83, 0x39, 0x65, 0x48, 0x7d, 0x39,
  0x1e, 0x86, 0x6d, 0x39, 0x62, 0x26, 0xac, 0x39, 0x20, 0x64, 0x54, 0x39,
  0xa5, 0x0c, 0xb5, 0x39, 0x0f, 0xda, 0xad, 0x39, 0x74, 0xad, 0x61, 0x39,
  0x77, 0x06, 0xbd, 0x39, 0x15, 0xfb, 0x29, 0x39, 0xa4, 0xb5, 0x2b, 0x39,
  0xdf, 0x00, 0x9c, 0x39, 0xf0, 0xc0, 0xd3, 0x39, 0x43, 0x97, 0xd8, 0x39,
  0xd0, 0x9b, 0xa5, 0x39, 0x7c, 0x9d, 0x8e, 0x39, 0xd6, 0x0c, 0x74, 0x39,
  0x2c, 0xe6, 0xf2, 0x39, 0x8b, 0xb9, 0x72, 0x39, 0x11, 0xc7, 0xaa, 0x39,
  0xa8, 0x8a, 0xdf, 0x39, 0x7c, 0x4f, 0x69, 0x39, 0xcb, 0xeb, 0x8d, 0x39,
  0xc9, 0xd8, 0x96, 0x39, 0x6c, 0x9d, 0x51, 0x39, 0x71, 0x0e, 0x96, 0x39,
  0x5a, 0xa3, 0xc2, 0x39, 0x32, 0xf8, 0x93, 0x39, 0xa9, 0x84, 0x01, 0x39,
  0x80, 0x32, 0x68, 0x39, 0xbe, 0xfa, 0x4d, 0x39, 0x6d, 0x76, 0x9d, 0x39,
  0xe0, 0xd9, 0x1d, 0x39, 0x26, 0x96, 0x80, 0x39, 0x25, 0x74, 0xb3, 0x39,
  0x2d, 0xf6, 0x89, 0x39, 0xe2, 0x89, 0x77, 0x39, 0x23, 0xb6, 0xa9, 0x39,
  0x12, 0x00, 0x00, 0x00, 0x74, 0x66, 0x6c, 0x2e, 0x70, 0x73, 0x65, 0x75,
  0x64, 0x6f, 0x5f, 0x71, 0x63, 0x6f, 0x6e, 0x73, 0x74, 0x36, 0x00, 0x00,
  0x01, 0x00, 0x00, 0x00, 0x30, 0x00, 0x00, 0x00, 0x00, 0x00, 0x16, 0x00,
  0x1e, 0x00, 0x18, 0x00, 0x17, 0x00, 0x10, 0x00, 0x0c, 0x00, 0x08, 0x00,
  0x00, 0x00, 0x00, 0x00, 0x00, 0x00, 0x07, 0x00, 0x16, 0x00, 0x00, 0x00,
  0x00, 0x00, 0x00, 0x01, 0x28, 0x00, 0x00, 0x00, 0x80, 0x02, 0x00, 0x00,
  0x08, 0x00, 0x00, 0x00, 0x00, 0x00, 0x00, 0x09, 0x8c, 0x02, 0x00, 0x00,
  0x00, 0x00, 0x12, 0x00, 0x10, 0x00, 0x00, 0x00, 0x00, 0x00, 0x0c, 0x00,
  0x08, 0x00, 0x00, 0x00, 0x00, 0x00, 0x04, 0x00, 0x12, 0x00, 0x00, 0x00,
  0x03, 0x00, 0x00, 0x00, 0x08, 0x00, 0x00, 0x00, 0x8c, 0x01, 0x00, 0x00,
  0x30, 0x00, 0x00, 0x00, 0x00, 0x00, 0x00, 0x00, 0x00, 0x00, 0x00, 0x00,
  0x00, 0x00, 0x00, 0x00, 0x00, 0x00, 0x00, 0x00, 0x00, 0x00, 0x00, 0x00,
  0x00, 0x00, 0x00, 0x00, 0x00, 0x00, 0x00, 0x00, 0x00, 0x00, 0x00, 0x00,
  0x00, 0x00, 0x00, 0x00, 0x00, 0x00, 0x00, 0x00, 0x00, 0x00, 0x00, 0x00,
  0x00, 0x00, 0x00, 0x00, 0x00, 0x00, 0x00, 0x00, 0x00, 0x00, 0x00, 0x00,
  0x00, 0x00, 0x00, 0x00, 0x00, 0x00, 0x00, 0x00, 0x00, 0x00, 0x00, 0x00,
  0x00, 0x00, 0x00, 0x00, 0x00, 0x00, 0x00, 0x00, 0x00, 0x00, 0x00, 0x00,
  0x00, 0x00, 0x00, 0x00, 0x00, 0x00, 0x00, 0x00, 0x00, 0x00, 0x00, 0x00,
  0x00, 0x00, 0x00, 0x00, 0x00, 0x00, 0x00, 0x00, 0x00, 0x00, 0x00, 0x00,
  0x00, 0x00, 0x00, 0x00, 0x00, 0x00, 0x00, 0x00, 0x00, 0x00, 0x00, 0x00,
  0x00, 0x00, 0x00, 0x00, 0x00, 0x00, 0x00, 0x00, 0x00, 0x00, 0x00, 0x00,
  0x00, 0x00, 0x00, 0x00, 0x00, 0x00, 0x00, 0x00, 0x00, 0x00, 0x00, 0x00,
  0x00, 0x00, 0x00, 0x00, 0x00, 0x00, 0x00, 0x00, 0x00, 0x00, 0x00, 0x00,
  0x00, 0x00, 0x00, 0x00, 0x00, 0x00, 0x00, 0x00, 0x00, 0x00, 0x00, 0x00,
  0x00, 0x00, 0x00, 0x00, 0x00, 0x00, 0x00, 0x00, 0x00, 0x00, 0x00, 0x00,
  0x00, 0x00, 0x00, 0x00, 0x00, 0x00, 0x00, 0x00, 0x00, 0x00, 0x00, 0x00,
  0x00, 0x00, 0x00, 0x00, 0x00, 0x00, 0x00, 0x00, 0x00, 0x00, 0x00, 0x00,
  0x00, 0x00, 0x00, 0x00, 0x00, 0x00, 0x00, 0x00, 0x00, 0x00, 0x00, 0x00,
  0x00, 0x00, 0x00, 0x00, 0x00, 0x00, 0x00, 0x00, 0x00, 0x00, 0x00, 0x00,
  0x00, 0x00, 0x00, 0x00, 0x00, 0x00, 0x00, 0x00, 0x00, 0x00, 0x00, 0x00,
  0x00, 0x00, 0x00, 0x00, 0x00, 0x00, 0x00, 0x00, 0x00, 0x00, 0x00, 0x00,
  0x00, 0x00, 0x00, 0x00, 0x00, 0x00, 0x00, 0x00, 0x00, 0x00, 0x00, 0x00,
  0x00, 0x00, 0x00, 0x00, 0x00, 0x00, 0x00, 0x00, 0x00, 0x00, 0x00, 0x00,
  0x00, 0x00, 0x00, 0x00, 0x00, 0x00, 0x00, 0x00, 0x00, 0x00, 0x00, 0x00,
  0x00, 0x00, 0x00, 0x00, 0x00, 0x00, 0x00, 0x00, 0x00, 0x00, 0x00, 0x00,
  0x00, 0x00, 0x00, 0x00, 0x00, 0x00, 0x00, 0x00, 0x00, 0x00, 0x00, 0x00,
  0x00, 0x00, 0x00, 0x00, 0x00, 0x00, 0x00, 0x00, 0x00, 0x00, 0x00, 0x00,
  0x00, 0x00, 0x00, 0x00, 0x00, 0x00, 0x00, 0x00, 0x00, 0x00, 0x00, 0x00,
  0x00, 0x00, 0x00, 0x00, 0x00, 0x00, 0x00, 0x00, 0x00, 0x00, 0x00, 0x00,
  0x00, 0x00, 0x00, 0x00, 0x00, 0x00, 0x00, 0x00, 0x00, 0x00, 0x00, 0x00,
  0x00, 0x00, 0x00, 0x00, 0x00, 0x00, 0x00, 0x00, 0x00, 0x00, 0x00, 0x00,
  0x00, 0x00, 0x00, 0x00, 0x00, 0x00, 0x00, 0x00, 0x00, 0x00, 0x00, 0x00,
  0x00, 0x00, 0x00, 0x00, 0x00, 0x00, 0x00, 0x00, 0x30, 0x00, 0x00, 0x00,
  0x5a, 0x3e, 0xf4, 0x3b, 0x3d, 0x59, 0x59, 0x3b, 0x71, 0x9f, 0x8d, 0x3b,
  0x1d, 0x7f, 0x05, 0x3c, 0xb5, 0x3f, 0x7f, 0x3b, 0x77, 0x51, 0xda, 0x3b,
  0x60, 0x27, 0x92, 0x3b, 0xd5, 0xb7, 0xc5, 0x3c, 0x32, 0x3b, 0xc2, 0x3b,
  0x74, 0xc2, 0x2d, 0x3c, 0x5c, 0x34, 0xd7, 0x3b, 0x29, 0x39, 0x94, 0x3b,
  0x75, 0x42, 0x6a, 0x3b, 0xfe, 0x11, 0x27, 0x3c, 0xda, 0xf3, 0xba, 0x3b,
  0x52, 0xf5, 0x08, 0x3c, 0x76, 0x34, 0x23, 0x3c, 0xc8, 0x9b, 0xa1, 0x3b,
  0x41, 0x60, 0xa1, 0x3b, 0x4a, 0x3e, 0xa9, 0x3b, 0x8d, 0x0a, 0x0a, 0x3c,
  0xaf, 0x95, 0xd6, 0x3b, 0xa4, 0x06, 0xd2, 0x3b, 0xb1, 0xc2, 0xbf, 0x3b,
  0xce, 0x47, 0x75, 0x3c, 0x2c, 0xe8, 0xc0, 0x3b, 0x7f, 0x51, 0xe6, 0x3b,
  0x52, 0x8a, 0x8b, 0x3b, 0x53, 0x93, 0xd4, 0x3b, 0x1e, 0x4d, 0xf2, 0x3b,
  0x88, 0xcb, 0x89, 0x3b, 0x12, 0xbb, 0xde, 0x3b, 0x65, 0x81, 0x9b, 0x3b,
  0x36, 0x27, 0xd2, 0x3b, 0x52, 0xc0, 0xb1, 0x3b, 0x4f, 0x40, 0xd6, 0x3b,
  0xe9, 0xda, 0xe7, 0x3b, 0x83, 0xd0, 0x9b, 0x3b, 0x6d, 0x25, 0x11, 0x3c,
  0x5b, 0x98, 0x9b, 0x3b, 0x15, 0x4b, 0xcd, 0x3b, 0x17, 0x26, 0xec, 0x3b,
  0x7c, 0x81, 0x95, 0x3d, 0x72, 0x0a, 0x06, 0x3c, 0xd7, 0x86, 0xf2, 0x3b,
  0x98, 0x65, 0x98, 0x3b, 0x1b, 0x0b, 0x14, 0x3c, 0xc1, 0x92, 0xd6, 0x3b,
  0x12, 0x00, 0x00, 0x00, 0x74, 0x66, 0x6c, 0x2e, 0x70, 0x73, 0x65, 0x75,
  0x64, 0x6f, 0x5f, 0x71, 0x63, 0x6f, 0x6e, 0x73, 0x74, 0x35, 0x00, 0x00,
  0x04, 0x00, 0x00, 0x00, 0x01, 0x00, 0x00, 0x00, 0x03, 0x00, 0x00, 0x00,
  0x03, 0x00, 0x00, 0x00, 0x30, 0x00, 0x00, 0x00, 0xca, 0xf5, 0xff, 0xff,
  0x00, 0x00, 0x00, 0x01, 0x14, 0x00, 0x00, 0x00, 0x64, 0x02, 0x00, 0x00,
  0x07, 0x00, 0x00, 0x00, 0x00, 0x00, 0x00, 0x02, 0x70, 0x02, 0x00, 0x00,
  0x44, 0xf5, 0xff, 0xff, 0x08, 0x00, 0x00, 0x00, 0x88, 0x01, 0x00, 0x00,
  0x30, 0x00, 0x00, 0x00, 0x00, 0x00, 0x00, 0x00, 0x00, 0x00, 0x00, 0x00,
  0x00, 0x00, 0x00, 0x00, 0x00, 0x00, 0x00, 0x00, 0x00, 0x00, 0x00, 0x00,
  0x00, 0x00, 0x00, 0x00, 0x00, 0x00, 0x00, 0x00, 0x00, 0x00, 0x00, 0x00,
  0x00, 0x00, 0x00, 0x00, 0x00, 0x00, 0x00, 0x00, 0x00, 0x00, 0x00, 0x00,
  0x00, 0x00, 0x00, 0x00, 0x00, 0x00, 0x00, 0x00, 0x00, 0x00, 0x00, 0x00,
  0x00, 0x00, 0x00, 0x00, 0x00, 0x00, 0x00, 0x00, 0x00, 0x00, 0x00, 0x00,
  0x00, 0x00, 0x00, 0x00, 0x00, 0x00, 0x00, 0x00, 0x00, 0x00, 0x00, 0x00,
  0x00, 0x00, 0x00, 0x00, 0x00, 0x00, 0x00, 0x00, 0x00, 0x00, 0x00, 0x00,
  0x00, 0x00, 0x00, 0x00, 0x00, 0x00, 0x00, 0x00, 0x00, 0x00, 0x00, 0x00,
  0x00, 0x00, 0x00, 0x00, 0x00, 0x00, 0x00, 0x00, 0x00, 0x00, 0x00, 0x00,
  0x00, 0x00, 0x00, 0x00, 0x00, 0x00, 0x00, 0x00, 0x00, 0x00, 0x00, 0x00,
  0x00, 0x00, 0x00, 0x00, 0x00, 0x00, 0x00, 0x00, 0x00, 0x00, 0x00, 0x00,
  0x00, 0x00, 0x00, 0x00, 0x00, 0x00, 0x00, 0x00, 0x00, 0x00, 0x00, 0x00,
  0x00, 0x00, 0x00, 0x00, 0x00, 0x00, 0x00, 0x00, 0x00, 0x00, 0x00, 0x00,
  0x00, 0x00, 0x00, 0x00, 0x00, 0x00, 0x00, 0x00, 0x00, 0x00, 0x00, 0x00,
  0x00, 0x00, 0x00, 0x00, 0x00, 0x00, 0x00, 0x00, 0x00, 0x00, 0x00, 0x00,
  0x00, 0x00, 0x00, 0x00, 0x00, 0x00, 0x00, 0x00, 0x00, 0x00, 0x00, 0x00,
  0x00, 0x00, 0x00, 0x00, 0x00, 0x00, 0x00, 0x00, 0x00, 0x00, 0x00, 0x00,
  0x00, 0x00, 0x00, 0x00, 0x00, 0x00, 0x00, 0x00, 0x00, 0x00, 0x00, 0x00,
  0x00, 0x00, 0x00, 0x00, 0x00, 0x00, 0x00, 0x00, 0x00, 0x00, 0x00, 0x00,
  0x00, 0x00, 0x00, 0x00, 0x00, 0x00, 0x00, 0x00, 0x00, 0x00, 0x00, 0x00,
  0x00, 0x00, 0x00, 0x00, 0x00, 0x00, 0x00, 0x00, 0x00, 0x00, 0x00, 0x00,
  0x00, 0x00, 0x00, 0x00, 0x00, 0x00, 0x00, 0x00, 0x00, 0x00, 0x00, 0x00,
  0x00, 0x00, 0x00, 0x00, 0x00, 0x00, 0x00, 0x00, 0x00, 0x00, 0x00, 0x00,
  0x00, 0x00, 0x00, 0x00, 0x00, 0x00, 0x00, 0x00, 0x00, 0x00, 0x00, 0x00,
  0x00, 0x00, 0x00, 0x00, 0x00, 0x00, 0x00, 0x00, 0x00, 0x00, 0x00, 0x00,
  0x00, 0x00, 0x00, 0x00, 0x00, 0x00, 0x00, 0x00, 0x00, 0x00, 0x00, 0x00,
  0x00, 0x00, 0x00, 0x00, 0x00, 0x00, 0x00, 0x00, 0x00, 0x00, 0x00, 0x00,
  0x00, 0x00, 0x00, 0x00, 0x00, 0x00, 0x00, 0x00, 0x00, 0x00, 0x00, 0x00,
  0x00, 0x00, 0x00, 0x00, 0x00, 0x00, 0x00, 0x00, 0x00, 0x00, 0x00, 0x00,
  0x00, 0x00, 0x00, 0x00, 0x00, 0x00, 0x00, 0x00, 0x00, 0x00, 0x00, 0x00,
  0x00, 0x00, 0x00, 0x00, 0x00, 0x00, 0x00, 0x00, 0x00, 0x00, 0x00, 0x00,
  0x00, 0x00, 0x00, 0x00, 0x30, 0x00, 0x00, 0x00, 0xc6, 0xae, 0x90, 0x39,
  0x3c, 0xc0, 0x00, 0x39, 0x51, 0xc9, 0x27, 0x39, 0xab, 0x28, 0x9e, 0x39,
  0xb1, 0x33, 0x17, 0x39, 0x47, 0x53, 0x81, 0x39, 0x8a, 0x27, 0x2d, 0x39,
  0xaa, 0x3e, 0x6a, 0x3a, 0x1f, 0x1d, 0x66, 0x39, 0x33, 0xdc, 0xcd, 0x39,
  0x31, 0xf6, 0x7e, 0x39, 0x32, 0x9b, 0x2f, 0x39, 0xbd, 0xc4, 0x0a, 0x39,
  0x60, 0xef, 0xc5, 0x39, 0x8a, 0x7d, 0x5d, 0x39, 0x98, 0x42, 0xa2, 0x39,
  0x09, 0x5b, 0xc1, 0x39, 0xdb, 0x76, 0x3f, 0x39, 0x55, 0x30, 0x3f, 0x39,
  0x71, 0x82, 0x48, 0x39, 0x0a, 0x8b, 0xa3, 0x39, 0x34, 0x3a, 0x7e, 0x39,
  0x8f, 0xd3, 0x78, 0x39, 0xc4, 0x2f, 0x63, 0x39, 0x05, 0x4c, 0x11, 0x3a,
  0x77, 0x8b, 0x64, 0x39, 0x0f, 0x6f, 0x88, 0x39, 0xb5, 0x51, 0x25, 0x39,
  0xd2, 0xd8, 0x7b, 0x39, 0x3a, 0x88, 0x8f, 0x39, 0x61, 0x40, 0x23, 0x39,
  0x6c, 0xf0, 0x83, 0x39, 0xd5, 0x3b, 0x38, 0x39, 0x25, 0xfa, 0x78, 0x39,
  0xd9, 0x96, 0x52, 0x39, 0x0e, 0xd5, 0x7d, 0x39, 0x1b, 0x58, 0x89, 0x39,
  0x91, 0x99, 0x38, 0x39, 0xef, 0xf5, 0xab, 0x39, 0x09, 0x57, 0x38, 0x39,
  0x2d, 0x38, 0x73, 0x39, 0x3a, 0xe3, 0x8b, 0x39, 0x2d, 0x20, 0x31, 0x3b,
  0xbd, 0xcd, 0x9e, 0x39, 0x6c, 0xaa, 0x8f, 0x39, 0x04, 0x8d, 0x34, 0x39,
  0xa2, 0x64, 0xaf, 0x39, 0xbb, 0x36, 0x7e, 0x39, 0x12, 0x00, 0x00, 0x00,
  0x74, 0x66, 0x6c, 0x2e, 0x70, 0x73, 0x65, 0x75, 0x64, 0x6f, 0x5f, 0x71,
  0x63, 0x6f, 0x6e, 0x73, 0x74, 0x34, 0x00, 0x00, 0x01, 0x00, 0x00, 0x00,
  0x30, 0x00, 0x00, 0x00, 0x5a, 0xf8, 0xff, 0xff, 0x00, 0x00, 0x00, 0x01,
  0x14, 0x00, 0x00, 0x00, 0x28, 0x03, 0x00, 0x00, 0x06, 0x00, 0x00, 0x00,
  0x00, 0x00, 0x00, 0x09, 0x34, 0x03, 0x00, 0x00, 0xd4, 0xf7, 0xff, 0xff,
  0x08, 0x00, 0x00, 0x00, 0x0c, 0x02, 0x00, 0x00, 0x40, 0x00, 0x00, 0x00,
  0x00, 0x00, 0x00, 0x00, 0x00, 0x00, 0x00, 0x00, 0x00, 0x00, 0x00, 0x00,
  0x00, 0x00, 0x00, 0x00, 0x00, 0x00, 0x00, 0x00, 0x00, 0x00, 0x00, 0x00,
  0x00, 0x00, 0x00, 0x00, 0x00, 0x00, 0x00, 0x00, 0x00, 0x00, 0x00, 0x00,
  0x00, 0x00, 0x00, 0x00, 0x00, 0x00, 0x00, 0x00, 0x00, 0x00, 0x00, 0x00,
  0x00, 0x00, 0x00, 0x00, 0x00, 0x00, 0x00, 0x00, 0x00, 0x00, 0x00, 0x00,
  0x00, 0x00, 0x00, 0x00, 0x00, 0x00, 0x00, 0x00, 0x00, 0x00, 0x00, 0x00,
  0x00, 0x00, 0x00, 0x00, 0x00, 0x00, 0x00, 0x00, 0x00, 0x00, 0x00, 0x00,
  0x00, 0x00, 0x00, 0x00, 0x00, 0x00, 0x00, 0x00, 0x00, 0x00, 0x00, 0x00,
  0x00, 0x00, 0x00, 0x00, 0x00, 0x00, 0x00, 0x00, 0x00, 0x00, 0x00, 0x00,
  0x00, 0x00, 0x00, 0x00, 0x00, 0x00, 0x00, 0x00, 0x00, 0x00, 0x00, 0x00,
  0x00, 0x00, 0x00, 0x00, 0x00, 0x00, 0x00, 0x00, 0x00, 0x00, 0x00, 0x00,
  0x00, 0x00, 0x00, 0x00, 0x00, 0x00, 0x00, 0x00, 0x00, 0x00, 0x00, 0x00,
  0x00, 0x00, 0x00, 0x00, 0x00, 0x00, 0x00, 0x00, 0x00, 0x00, 0x00, 0x00,
  0x00, 0x00, 0x00, 0x00, 0x00, 0x00, 0x00, 0x00, 0x00, 0x00, 0x00, 0x00,
  0x00, 0x00, 0x00, 0x00, 0x00, 0x00, 0x00, 0x00, 0x00, 0x00, 0x00, 0x00,
  0x00, 0x00, 0x00, 0x00, 0x00, 0x00, 0x00, 0x00, 0x00, 0x00, 0x00, 0x00,
  0x00, 0x00, 0x00, 0x00, 0x00, 0x00, 0x00, 0x00, 0x00, 0x00, 0x00, 0x00,
  0x00, 0x00, 0x00, 0x00, 0x00, 0x00, 0x00, 0x00, 0x00, 0x00, 0x00, 0x00,
  0x00, 0x00, 0x00, 0x00, 0x00, 0x00, 0x00, 0x00, 0x00, 0x00, 0x00, 0x00,
  0x00, 0x00, 0x00, 0x00, 0x00, 0x00, 0x00, 0x00, 0x00, 0x00, 0x00, 0x00,
  0x00, 0x00, 0x00, 0x00, 0x00, 0x00, 0x00, 0x00, 0x00, 0x00, 0x00, 0x00,
  0x00, 0x00, 0x00, 0x00, 0x00, 0x00, 0x00, 0x00, 0x00, 0x00, 0x00, 0x00,
  0x00, 0x00, 0x00, 0x00, 0x00, 0x00, 0x00, 0x00, 0x00, 0x00, 0x00, 0x00,
  0x00, 0x00, 0x00, 0x00, 0x00, 0x00, 0x00, 0x00, 0x00, 0x00, 0x00, 0x00,
  0x00, 0x00, 0x00, 0x00, 0x00, 0x00, 0x00, 0x00, 0x00, 0x00, 0x00, 0x00,
  0x00, 0x00, 0x00, 0x00, 0x00, 0x00, 0x00, 0x00, 0x00, 0x00, 0x00, 0x00,
  0x00, 0x00, 0x00, 0x00, 0x00, 0x00, 0x00, 0x00, 0x00, 0x00, 0x00, 0x00,
  0x00, 0x00, 0x00, 0x00, 0x00, 0x00, 0x00, 0x00, 0x00, 0x00, 0x00, 0x00,
  0x00, 0x00, 0x00, 0x00, 0x00, 0x00, 0x00, 0x00, 0x00, 0x00, 0x00, 0x00,
  0x00, 0x00, 0x00, 0x00, 0x00, 0x00, 0x00, 0x00, 0x00, 0x00, 0x00, 0x00,
  0x00, 0x00, 0x00, 0x00, 0x00, 0x00, 0x00, 0x00, 0x00, 0x00, 0x00, 0x00,
  0x00, 0x00, 0x00, 0x00, 0x00, 0x00, 0x00, 0x00, 0x00, 0x00, 0x00, 0x00,
  0x00, 0x00, 0x00, 0x00, 0x00, 0x00, 0x00, 0x00, 0x00, 0x00, 0x00, 0x00,
  0x00, 0x00, 0x00, 0x00, 0x00, 0x00, 0x00, 0x00, 0x00, 0x00, 0x00, 0x00,
  0x00, 0x00, 0x00, 0x00, 0x00, 0x00, 0x00, 0x00, 0x00, 0x00, 0x00, 0x00,
  0x00, 0x00, 0x00, 0x00, 0x00, 0x00, 0x00, 0x00, 0x00, 0x00, 0x00, 0x00,
  0x00, 0x00, 0x00, 0x00, 0x00, 0x00, 0x00, 0x00, 0x00, 0x00, 0x00, 0x00,
  0x00, 0x00, 0x00, 0x00, 0x00, 0x00, 0x00, 0x00, 0x00, 0x00, 0x00, 0x00,
  0x00, 0x00, 0x00, 0x00, 0x00, 0x00, 0x00, 0x00, 0x00, 0x00, 0x00, 0x00,
  0x00, 0x00, 0x00, 0x00, 0x00, 0x00, 0x00, 0x00, 0x00, 0x00, 0x00, 0x00,
  0x00, 0x00, 0x00, 0x00, 0x00, 0x00, 0x00, 0x00, 0x00, 0x00, 0x00, 0x00,
  0x00, 0x00, 0x00, 0x00, 0x00, 0x00, 0x00, 0x00, 0x00, 0x00, 0x00, 0x00,
  0x00, 0x00, 0x00, 0x00, 0x00, 0x00, 0x00, 0x00, 0x00, 0x00, 0x00, 0x00,
  0x40, 0x00, 0x00, 0x00, 0xee, 0x32, 0x03, 0x3c, 0x78, 0xeb, 0xc6, 0x3b,
  0xd1, 0x60, 0xad, 0x3b, 0x08, 0x55, 0xab, 0x3b, 0x73, 0x34, 0xb6, 0x3b,
  0xb4, 0xa5, 0x9b, 0x3b, 0xea, 0x10, 0x9c, 0x3b, 0x35, 0x40, 0xfb, 0x3b,
  0x44, 0xa2, 0xad, 0x3b, 0x4e, 0x51, 0xa8, 0x3b, 0xb1, 0x0d, 0xf7, 0x3b,
  0x16, 0x5d, 0xea, 0x3b, 0x30, 0xcb, 0xd0, 0x3b, 0xa7, 0x48, 0x14, 0x3c,
  0xe7, 0x7b, 0xd2, 0x3b, 0x5c, 0x77, 0xb8, 0x3b, 0x52, 0x2b, 0xf3, 0x3b,
  0x1c, 0x1b, 0x15, 0x3c, 0x65, 0x1b, 0xd9, 0x3b, 0xfe, 0x6a, 0xc2, 0x3b,
  0x72, 0xc3, 0x20, 0x3c, 0x99, 0x64, 0xa5, 0x3b, 0x1c, 0xcd, 0xaf, 0x3b,
  0xca, 0x43, 0x05, 0x3c, 0x32, 0xe4, 0xee, 0x3b, 0x06, 0x2e, 0x9d, 0x3b,
  0x78, 0xda, 0xad, 0x3b, 0xa7, 0x3b, 0xb5, 0x3b, 0xc6, 0x17, 0xa3, 0x3b,
  0x06, 0xc7, 0x0e, 0x3c, 0xdb, 0x2c, 0xbc, 0x3b, 0x0f, 0x78, 0xa9, 0x3b,
  0x3c, 0xc4, 0xba, 0x3b, 0x69, 0xc1, 0xe8, 0x3b, 0xf2, 0x1e, 0xea, 0x3b,
  0xd3, 0x16, 0x19, 0x3c, 0x67, 0x2a, 0xbe, 0x3b, 0x8a, 0xa0, 0xda, 0x3b,
  0xd3, 0xd2, 0xd7, 0x3b, 0x97, 0x23, 0xc4, 0x3b, 0x3f, 0x8f, 0xec, 0x3b,
  0xb6, 0x65, 0xca, 0x3b, 0xa1, 0x78, 0xa6, 0x3b, 0x46, 0xbb, 0xa3, 0x3b,
  0x16, 0xd0, 0xa7, 0x3b, 0xa7, 0x87, 0xd8, 0x3b, 0xc4, 0x31, 0xc0, 0x3b,
  0x58, 0x27, 0x9f, 0x3b, 0xc5, 0x40, 0x1a, 0x3c, 0x34, 0x12, 0xe8, 0x3b,
  0xb9, 0x9b, 0x09, 0x3c, 0xe7, 0x3c, 0xcd, 0x3b, 0xf7, 0x24, 0xf5, 0x3b,
  0x4d, 0x4c, 0xdc, 0x3b, 0x23, 0xa8, 0xce, 0x3b, 0x6f, 0xb1, 0xbc, 0x3b,
  0x01, 0x08, 0x20, 0x3c, 0x5b, 0xb0, 0x11, 0x3c, 0xdc, 0xd7, 0xf8, 0x3b,
  0x06, 0xa1, 0x1f, 0x3c, 0xb6, 0x8c, 0xf1, 0x3b, 0xf3, 0x2b, 0x08, 0x3c,
  0x4b, 0xb9, 0x93, 0x3b, 0x3b, 0xfe, 0x07, 0x3c, 0x12, 0x00, 0x00, 0x00,
  0x74, 0x66, 0x6c, 0x2e, 0x70, 0x73, 0x65, 0x75, 0x64, 0x6f, 0x5f, 0x71,
  0x63, 0x6f, 0x6e, 0x73, 0x74, 0x33, 0x00, 0x00, 0x04, 0x00, 0x00, 0x00,
  0x40, 0x00, 0x00, 0x00, 0x01, 0x00, 0x00, 0x00, 0x01, 0x00, 0x00, 0x00,
  0x30, 0x00, 0x00, 0x00, 0xba, 0xfb, 0xff, 0xff, 0x00, 0x00, 0x00, 0x01,
  0x14, 0x00, 0x00, 0x00, 0x24, 0x03, 0x00, 0x00, 0x05, 0x00, 0x00, 0x00,
  0x00, 0x00, 0x00, 0x02, 0x30, 0x03, 0x00, 0x00, 0x34, 0xfb, 0xff, 0xff,
  0x08, 0x00, 0x00, 0x00, 0x08, 0x02, 0x00, 0x00, 0x40, 0x00, 0x00, 0x00,
  0x00, 0x00, 0x00, 0x00, 0x00, 0x00, 0x00, 0x00, 0x00, 0x00, 0x00, 0x00,
  0x00, 0x00, 0x00, 0x00, 0x00, 0x00, 0x00, 0x00, 0x00, 0x00, 0x00, 0x00,
  0x00, 0x00, 0x00, 0x00, 0x00, 0x00, 0x00, 0x00, 0x00, 0x00, 0x00, 0x00,
  0x00, 0x00, 0x00, 0x00, 0x00, 0x00, 0x00, 0x00, 0x00, 0x00, 0x00, 0x00,
  0x00, 0x00, 0x00, 0x00, 0x00, 0x00, 0x00, 0x00, 0x00, 0x00, 0x00, 0x00,
  0x00, 0x00, 0x00, 0x00, 0x00, 0x00, 0x00, 0x00, 0x00, 0x00, 0x00, 0x00,
  0x00, 0x00, 0x00, 0x00, 0x00, 0x00, 0x00, 0x00, 0x00, 0x00, 0x00, 0x00,
  0x00, 0x00, 0x00, 0x00, 0x00, 0x00, 0x00, 0x00, 0x00, 0x00, 0x00, 0x00,
  0x00, 0x00, 0x00, 0x00, 0x00, 0x00, 0x00, 0x00, 0x00, 0x00, 0x00, 0x00,
  0x00, 0x00, 0x00, 0x00, 0x00, 0x00, 0x00, 0x00, 0x00, 0x00, 0x00, 0x00,
  0x00, 0x00, 0x00, 0x00, 0x00, 0x00, 0x00, 0x00, 0x00, 0x00, 0x00, 0x00,
  0x00, 0x00, 0x00, 0x00, 0x00, 0x00, 0x00, 0x00, 0x00, 0x00, 0x00, 0x00,
  0x00, 0x00, 0x00, 0x00, 0x00, 0x00, 0x00, 0x00, 0x00, 0x00, 0x00, 0x00,
  0x00, 0x00, 0x00, 0x00, 0x00, 0x00, 0x00, 0x00, 0x00, 0x00, 0x00, 0x00,
  0x00, 0x00, 0x00, 0x00, 0x00, 0x00, 0x00, 0x00, 0x00, 0x00, 0x00, 0x00,
  0x00, 0x00, 0x00, 0x00, 0x00, 0x00, 0x00, 0x00, 0x00, 0x00, 0x00, 0x00,
  0x00, 0x00, 0x00, 0x00, 0x00, 0x00, 0x00, 0x00, 0x00, 0x00, 0x00, 0x00,
  0x00, 0x00, 0x00, 0x00, 0x00, 0x00, 0x00, 0x00, 0x00, 0x00, 0x00, 0x00,
  0x00, 0x00, 0x00, 0x00, 0x00, 0x00, 0x00, 0x00, 0x00, 0x00, 0x00, 0x00,
  0x00, 0x00, 0x00, 0x00, 0x00, 0x00, 0x00, 0x00, 0x00, 0x00, 0x00, 0x00,
  0x00, 0x00, 0x00, 0x00, 0x00, 0x00, 0x00, 0x00, 0x00, 0x00, 0x00, 0x00,
  0x00, 0x00, 0x00, 0x00, 0x00, 0x00, 0x00, 0x00, 0x00, 0x00, 0x00, 0x00,
